{
  "version": "1.0",
  "truncation": null,
  "padding": null,
  "added_tokens": [
    {
      "id": 0,
      "content": "[PAD]",
      "single_word": false,
      "lstrip": false,
      "rstrip": false,
      "normalized": false,
      "special": true
    },
    {
      "id": 1,
      "content": "[UNK]",
      "single_word": false,
      "lstrip": false,
      "rstrip": false,
      "normalized": false,
      "special": true
    },
    {
      "id": 2,
      "content": "[BOS]",
      "single_word": false,
      "lstrip": false,
      "rstrip": false,
      "normalized": false,
      "special": true
    },
    {
      "id": 3,
      "content": "[EOS]",
      "single_word": false,
      "lstrip": false,
      "rstrip": false,
      "normalized": false,
      "special": true
    }
  ],
  "normalizer": {
    "type": "NFC"
  },
  "pre_tokenizer": {
    "type": "Whitespace"
  },
  "post_processor": {
    "type": "TemplateProcessing",
    "single": [
      {
        "Sequence": {
          "id": "A",
          "type_id": 0
        }
      }
    ],
    "pair": [
      {
        "Sequence": {
          "id": "A",
          "type_id": 0
        }
      },
      {
        "Sequence": {
          "id": "B",
          "type_id": 1
        }
      }
    ],
    "special_tokens": {}
  },
  "decoder": null,
  "model": {
    "type": "BPE",
    "dropout": null,
    "unk_token": "[UNK]",
    "continuing_subword_prefix": null,
    "end_of_word_suffix": null,
    "fuse_unk": false,
    "byte_fallback": false,
    "ignore_merges": false,
    "vocab": {
      "[PAD]": 0,
      "[UNK]": 1,
      "[BOS]": 2,
      "[EOS]": 3,
      "\u0001": 4,
      "\u0002": 5,
      "\u0003": 6,
      "\u0004": 7,
      "\u0005": 8,
      "!": 9,
      "\"": 10,
      "#": 11,
      "$": 12,
      "%": 13,
      "&": 14,
      "'": 15,
      "(": 16,
      ")": 17,
      "+": 18,
      ",": 19,
      "-": 20,
      ".": 21,
      "/": 22,
      "0": 23,
      "1": 24,
      "2": 25,
      "3": 26,
      "4": 27,
      "5": 28,
      "6": 29,
      "7": 30,
      "8": 31,
      "9": 32,
      ":": 33,
      ";": 34,
      "<": 35,
      "=": 36,
      ">": 37,
      "?": 38,
      "@": 39,
      "A": 40,
      "B": 41,
      "C": 42,
      "D": 43,
      "E": 44,
      "F": 45,
      "G": 46,
      "H": 47,
      "I": 48,
      "J": 49,
      "K": 50,
      "L": 51,
      "M": 52,
      "N": 53,
      "O": 54,
      "P": 55,
      "Q": 56,
      "R": 57,
      "S": 58,
      "T": 59,
      "U": 60,
      "V": 61,
      "W": 62,
      "X": 63,
      "Y": 64,
      "Z": 65,
      "[": 66,
      "\\": 67,
      "]": 68,
      "^": 69,
      "_": 70,
      "`": 71,
      "a": 72,
      "b": 73,
      "c": 74,
      "d": 75,
      "e": 76,
      "f": 77,
      "g": 78,
      "h": 79,
      "i": 80,
      "j": 81,
      "k": 82,
      "l": 83,
      "m": 84,
      "n": 85,
      "o": 86,
      "p": 87,
      "q": 88,
      "r": 89,
      "s": 90,
      "t": 91,
      "u": 92,
      "v": 93,
      "w": 94,
      "x": 95,
      "y": 96,
      "z": 97,
      "{": 98,
      "|": 99,
      "}": 100,
      "~": 101,
      "": 102,
      "": 103,
      "": 104,
      "": 105,
      "": 106,
      "": 107,
      "": 108,
      "": 109,
      "": 110,
      "": 111,
      "¡": 112,
      "¢": 113,
      "£": 114,
      "¤": 115,
      "¥": 116,
      "¦": 117,
      "°": 118,
      "±": 119,
      "¶": 120,
      "·": 121,
      "»": 122,
      "¿": 123,
      "À": 124,
      "Á": 125,
      "Ã": 126,
      "Å": 127,
      "Æ": 128,
      "Ç": 129,
      "È": 130,
      "Ë": 131,
      "Ì": 132,
      "Í": 133,
      "Ï": 134,
      "Ð": 135,
      "Ñ": 136,
      "Ò": 137,
      "Ó": 138,
      "Õ": 139,
      "Ö": 140,
      "Ø": 141,
      "Ù": 142,
      "Ú": 143,
      "Ü": 144,
      "Ý": 145,
      "Þ": 146,
      "ß": 147,
      "à": 148,
      "á": 149,
      "â": 150,
      "ã": 151,
      "ä": 152,
      "å": 153,
      "æ": 154,
      "ç": 155,
      "è": 156,
      "é": 157,
      "ê": 158,
      "ë": 159,
      "ì": 160,
      "í": 161,
      "ð": 162,
      "ñ": 163,
      "ò": 164,
      "ó": 165,
      "õ": 166,
      "ö": 167,
      "÷": 168,
      "ø": 169,
      "ù": 170,
      "ú": 171,
      "û": 172,
      "ü": 173,
      "ý": 174,
      "ÿ": 175,
      "Ā": 176,
      "ā": 177,
      "Ă": 178,
      "ă": 179,
      "ą": 180,
      "Ć": 181,
      "ć": 182,
      "Ĉ": 183,
      "ĉ": 184,
      "Ċ": 185,
      "Č": 186,
      "č": 187,
      "Ď": 188,
      "ď": 189,
      "Đ": 190,
      "đ": 191,
      "Ē": 192,
      "ē": 193,
      "ĕ": 194,
      "Ė": 195,
      "ė": 196,
      "Ę": 197,
      "ę": 198,
      "Ě": 199,
      "ě": 200,
      "Ĝ": 201,
      "ĝ": 202,
      "Ğ": 203,
      "ğ": 204,
      "ģ": 205,
      "Ĥ": 206,
      "ĥ": 207,
      "Ħ": 208,
      "ħ": 209,
      "ĩ": 210,
      "Ī": 211,
      "ī": 212,
      "Ĭ": 213,
      "ĭ": 214,
      "Į": 215,
      "į": 216,
      "İ": 217,
      "ı": 218,
      "ĵ": 219,
      "Ķ": 220,
      "ķ": 221,
      "ĸ": 222,
      "Ĺ": 223,
      "ĺ": 224,
      "Ļ": 225,
      "ļ": 226,
      "Ľ": 227,
      "ľ": 228,
      "Ł": 229,
      "ń": 230,
      "Ņ": 231,
      "ņ": 232,
      "Ň": 233,
      "ň": 234,
      "ŋ": 235,
      "Ō": 236,
      "ō": 237,
      "ŏ": 238,
      "Ő": 239,
      "ő": 240,
      "Œ": 241,
      "ŕ": 242,
      "Ř": 243,
      "ř": 244,
      "Ś": 245,
      "ś": 246,
      "Ŝ": 247,
      "ŝ": 248,
      "Ş": 249,
      "ş": 250,
      "Ţ": 251,
      "ţ": 252,
      "ť": 253,
      "Ŧ": 254,
      "ŧ": 255,
      "ũ": 256,
      "Ū": 257,
      "ū": 258,
      "Ŭ": 259,
      "ŭ": 260,
      "ů": 261,
      "Ű": 262,
      "ű": 263,
      "ų": 264,
      "ŵ": 265,
      "ŷ": 266,
      "Ÿ": 267,
      "Ź": 268,
      "ź": 269,
      "Ż": 270,
      "ż": 271,
      "Ž": 272,
      "ž": 273,
      "ƃ": 274,
      "Ƅ": 275,
      "ƅ": 276,
      "Ƈ": 277,
      "ƈ": 278,
      "Ɖ": 279,
      "Ɗ": 280,
      "Ǝ": 281,
      "Ɛ": 282,
      "Ƒ": 283,
      "ƒ": 284,
      "Ɠ": 285,
      "Ɩ": 286,
      "Ɨ": 287,
      "Ƙ": 288,
      "ƛ": 289,
      "Ɲ": 290,
      "Ɵ": 291,
      "ơ": 292,
      "Ƥ": 293,
      "Ʀ": 294,
      "ƨ": 295,
      "Ʃ": 296,
      "ƪ": 297,
      "ƫ": 298,
      "Ƭ": 299,
      "ƭ": 300,
      "Ʈ": 301,
      "ư": 302,
      "Ʋ": 303,
      "Ƴ": 304,
      "ƴ": 305,
      "Ʒ": 306,
      "ƺ": 307,
      "ƽ": 308,
      "ǀ": 309,
      "ǂ": 310,
      "ǎ": 311,
      "ǐ": 312,
      "ǒ": 313,
      "ǔ": 314,
      "Ǚ": 315,
      "ǚ": 316,
      "Ǜ": 317,
      "ǜ": 318,
      "ǝ": 319,
      "Ǧ": 320,
      "ǧ": 321,
      "Ǩ": 322,
      "ǩ": 323,
      "ǫ": 324,
      "ǯ": 325,
      "ǵ": 326,
      "Ǿ": 327,
      "ǿ": 328,
      "Ȃ": 329,
      "ȃ": 330,
      "ȅ": 331,
      "Ȇ": 332,
      "ȇ": 333,
      "ȋ": 334,
      "Ȍ": 335,
      "ȏ": 336,
      "Ȑ": 337,
      "ȕ": 338,
      "ȗ": 339,
      "Ș": 340,
      "ș": 341,
      "Ț": 342,
      "ț": 343,
      "ȟ": 344,
      "Ƞ": 345,
      "ȧ": 346,
      "ȩ": 347,
      "Ȫ": 348,
      "ȫ": 349,
      "ȯ": 350,
      "Ȳ": 351,
      "ȶ": 352,
      "ȼ": 353,
      "ɀ": 354,
      "ɇ": 355,
      "ɐ": 356,
      "ɑ": 357,
      "ɒ": 358,
      "ɔ": 359,
      "ɕ": 360,
      "ɗ": 361,
      "ɘ": 362,
      "ə": 363,
      "ɚ": 364,
      "ɛ": 365,
      "ɜ": 366,
      "ɡ": 367,
      "ɢ": 368,
      "ɣ": 369,
      "ɤ": 370,
      "ɦ": 371,
      "ɨ": 372,
      "ɩ": 373,
      "ɪ": 374,
      "ɫ": 375,
      "ɭ": 376,
      "ɯ": 377,
      "ɲ": 378,
      "ɳ": 379,
      "ɴ": 380,
      "ɵ": 381,
      "ɶ": 382,
      "ɸ": 383,
      "ɹ": 384,
      "ɻ": 385,
      "ɽ": 386,
      "ɾ": 387,
      "ʀ": 388,
      "ʁ": 389,
      "ʂ": 390,
      "ʃ": 391,
      "ʇ": 392,
      "ʈ": 393,
      "ʊ": 394,
      "ʎ": 395,
      "ʏ": 396,
      "ʐ": 397,
      "ʑ": 398,
      "ʒ": 399,
      "ʔ": 400,
      "ʖ": 401,
      "ʘ": 402,
      "ʙ": 403,
      "ʜ": 404,
      "ʞ": 405,
      "ʟ": 406,
      "ʤ": 407,
      "ʧ": 408,
      "ʹ": 409,
      "ʺ": 410,
      "ʼ": 411,
      "ʽ": 412,
      "ʾ": 413,
      "ʿ": 414,
      "ˁ": 415,
      "˂": 416,
      "˃": 417,
      "˅": 418,
      "ˆ": 419,
      "ˈ": 420,
      "ˊ": 421,
      "ˌ": 422,
      "ː": 423,
      "ˑ": 424,
      "ˮ": 425,
      "́": 426,
      "̂": 427,
      "̃": 428,
      "̄": 429,
      "̇": 430,
      "̈": 431,
      "̊": 432,
      "̋": 433,
      "̍": 434,
      "̓": 435,
      "̔": 436,
      "̕": 437,
      "̗": 438,
      "̞": 439,
      "̠": 440,
      "̦": 441,
      "̧": 442,
      "̨": 443,
      "̪": 444,
      "̯": 445,
      "̱": 446,
      "̲": 447,
      "̴": 448,
      "̵": 449,
      "̶": 450,
      "̷": 451,
      "̸": 452,
      "̹": 453,
      "̿": 454,
      "ͅ": 455,
      "͇": 456,
      "͕": 457,
      "͘": 458,
      "͜": 459,
      "͟": 460,
      "ͦ": 461,
      "ͳ": 462,
      "͵": 463,
      "ͻ": 464,
      "Ά": 465,
      "Έ": 466,
      "Ή": 467,
      "Ί": 468,
      "Ό": 469,
      "Ύ": 470,
      "Ώ": 471,
      "ΐ": 472,
      "Α": 473,
      "Β": 474,
      "Γ": 475,
      "Ε": 476,
      "Ζ": 477,
      "Η": 478,
      "Θ": 479,
      "Ι": 480,
      "Κ": 481,
      "Λ": 482,
      "Μ": 483,
      "Ν": 484,
      "Ξ": 485,
      "Ο": 486,
      "Π": 487,
      "Ρ": 488,
      "΢": 489,
      "Σ": 490,
      "Τ": 491,
      "Υ": 492,
      "Φ": 493,
      "Χ": 494,
      "Ψ": 495,
      "Ω": 496,
      "Ϊ": 497,
      "Ϋ": 498,
      "ά": 499,
      "έ": 500,
      "ή": 501,
      "ί": 502,
      "α": 503,
      "β": 504,
      "γ": 505,
      "δ": 506,
      "ε": 507,
      "ζ": 508,
      "η": 509,
      "ι": 510,
      "κ": 511,
      "λ": 512,
      "μ": 513,
      "ν": 514,
      "ξ": 515,
      "ο": 516,
      "π": 517,
      "ρ": 518,
      "ς": 519,
      "σ": 520,
      "τ": 521,
      "υ": 522,
      "φ": 523,
      "χ": 524,
      "ψ": 525,
      "ϊ": 526,
      "ϋ": 527,
      "ό": 528,
      "ύ": 529,
      "ώ": 530,
      "Ϝ": 531,
      "Ϟ": 532,
      "Ϻ": 533,
      "Ͻ": 534,
      "Ͼ": 535,
      "Ѐ": 536,
      "Ё": 537,
      "Ђ": 538,
      "Ѓ": 539,
      "Є": 540,
      "Ѕ": 541,
      "І": 542,
      "Ї": 543,
      "Ј": 544,
      "Љ": 545,
      "Њ": 546,
      "Џ": 547,
      "Ж": 548,
      "Й": 549,
      "Ф": 550,
      "Ц": 551,
      "Ч": 552,
      "Ш": 553,
      "Щ": 554,
      "Ъ": 555,
      "Ы": 556,
      "Ь": 557,
      "Э": 558,
      "Ю": 559,
      "ъ": 560,
      "ѐ": 561,
      "ђ": 562,
      "ѓ": 563,
      "є": 564,
      "ѕ": 565,
      "ї": 566,
      "ј": 567,
      "љ": 568,
      "њ": 569,
      "ћ": 570,
      "ќ": 571,
      "џ": 572,
      "ѡ": 573,
      "Ѣ": 574,
      "ѣ": 575,
      "ѵ": 576,
      "ѻ": 577,
      "҆": 578,
      "҉": 579,
      "Ґ": 580,
      "ґ": 581,
      "Ғ": 582,
      "ҕ": 583,
      "Қ": 584,
      "ҝ": 585,
      "Ң": 586,
      "ң": 587,
      "ҧ": 588,
      "Ҫ": 589,
      "ҫ": 590,
      "ҭ": 591,
      "Ү": 592,
      "ұ": 593,
      "Ҳ": 594,
      "ҷ": 595,
      "Һ": 596,
      "һ": 597,
      "Ӏ": 598,
      "ӑ": 599,
      "ӓ": 600,
      "Ә": 601,
      "ӡ": 602,
      "Ӧ": 603,
      "ӧ": 604,
      "Ө": 605,
      "Ԁ": 606,
      "ԁ": 607,
      "Ԍ": 608,
      "ԑ": 609,
      "Ա": 610,
      "Բ": 611,
      "Գ": 612,
      "Դ": 613,
      "Ե": 614,
      "Զ": 615,
      "Է": 616,
      "Ը": 617,
      "Թ": 618,
      "Ի": 619,
      "Խ": 620,
      "Ծ": 621,
      "Կ": 622,
      "Հ": 623,
      "Ղ": 624,
      "Մ": 625,
      "Յ": 626,
      "Ն": 627,
      "Շ": 628,
      "Ո": 629,
      "Չ": 630,
      "Պ": 631,
      "Ջ": 632,
      "Ռ": 633,
      "Ս": 634,
      "Վ": 635,
      "Տ": 636,
      "Ր": 637,
      "Ց": 638,
      "Փ": 639,
      "Օ": 640,
      "՚": 641,
      "՛": 642,
      "՝": 643,
      "ա": 644,
      "բ": 645,
      "գ": 646,
      "դ": 647,
      "ե": 648,
      "զ": 649,
      "է": 650,
      "ը": 651,
      "թ": 652,
      "ի": 653,
      "լ": 654,
      "խ": 655,
      "ծ": 656,
      "կ": 657,
      "հ": 658,
      "ձ": 659,
      "ղ": 660,
      "ճ": 661,
      "մ": 662,
      "յ": 663,
      "ն": 664,
      "շ": 665,
      "ո": 666,
      "չ": 667,
      "պ": 668,
      "ջ": 669,
      "ռ": 670,
      "ս": 671,
      "վ": 672,
      "տ": 673,
      "ր": 674,
      "ց": 675,
      "ւ": 676,
      "փ": 677,
      "ք": 678,
      "օ": 679,
      "ֆ": 680,
      "֒": 681,
      "֔": 682,
      "֙": 683,
      "֜": 684,
      "֣": 685,
      "֤": 686,
      "ְ": 687,
      "ֲ": 688,
      "ִ": 689,
      "ֵ": 690,
      "ֶ": 691,
      "ַ": 692,
      "ָ": 693,
      "ֹ": 694,
      "ּ": 695,
      "־": 696,
      "ׁ": 697,
      "ׂ": 698,
      "א": 699,
      "ב": 700,
      "ג": 701,
      "ד": 702,
      "ה": 703,
      "ו": 704,
      "ז": 705,
      "ח": 706,
      "ט": 707,
      "י": 708,
      "ך": 709,
      "כ": 710,
      "ל": 711,
      "ם": 712,
      "מ": 713,
      "ן": 714,
      "נ": 715,
      "ס": 716,
      "ע": 717,
      "ף": 718,
      "פ": 719,
      "ץ": 720,
      "צ": 721,
      "ק": 722,
      "ר": 723,
      "ש": 724,
      "ת": 725,
      "ײ": 726,
      "׳": 727,
      "؋": 728,
      "؛": 729,
      "آ": 730,
      "ا": 731,
      "ب": 732,
      "ة": 733,
      "ت": 734,
      "ث": 735,
      "ج": 736,
      "ح": 737,
      "خ": 738,
      "د": 739,
      "ذ": 740,
      "ر": 741,
      "ز": 742,
      "س": 743,
      "ش": 744,
      "ص": 745,
      "ض": 746,
      "ط": 747,
      "ع": 748,
      "غ": 749,
      "ف": 750,
      "ق": 751,
      "ك": 752,
      "ل": 753,
      "م": 754,
      "ن": 755,
      "ه": 756,
      "و": 757,
      "ى": 758,
      "ي": 759,
      "ٍ": 760,
      "َ": 761,
      "ُ": 762,
      "ِ": 763,
      "ْ": 764,
      "ٓ": 765,
      "ٙ": 766,
      "ٜ": 767,
      "ٝ": 768,
      "١": 769,
      "٢": 770,
      "٤": 771,
      "٥": 772,
      "٦": 773,
      "٧": 774,
      "٨": 775,
      "٩": 776,
      "٫": 777,
      "٭": 778,
      "پ": 779,
      "ژ": 780,
      "ک": 781,
      "ڭ": 782,
      "گ": 783,
      "ڰ": 784,
      "ڵ": 785,
      "ڶ": 786,
      "ڿ": 787,
      "ہ": 788,
      "۔": 789,
      "۞": 790,
      "ۣ": 791,
      "ۥ": 792,
      "۩": 793,
      "۱": 794,
      "۲": 795,
      "۵": 796,
      "۸": 797,
      "ܐ": 798,
      "ܒ": 799,
      "ܓ": 800,
      "ܔ": 801,
      "ܕ": 802,
      "ܗ": 803,
      "ܘ": 804,
      "ܚ": 805,
      "ܛ": 806,
      "ܝ": 807,
      "ܟ": 808,
      "ܠ": 809,
      "ܡ": 810,
      "ܢ": 811,
      "ܣ": 812,
      "ܥ": 813,
      "ܦ": 814,
      "ܨ": 815,
      "ܪ": 816,
      "ܫ": 817,
      "ܬ": 818,
      "ܰ": 819,
      "ܲ": 820,
      "ܳ": 821,
      "ܹ": 822,
      "ܼ": 823,
      "ݳ": 824,
      "ހ": 825,
      "ރ": 826,
      "އ": 827,
      "ވ": 828,
      "ދ": 829,
      "ޖ": 830,
      "ޝ": 831,
      "ޞ": 832,
      "ާ": 833,
      "ި": 834,
      "ެ": 835,
      "ް": 836,
      "ߋ": 837,
      "࡮": 838,
      "ँ": 839,
      "ं": 840,
      "ः": 841,
      "अ": 842,
      "इ": 843,
      "ई": 844,
      "उ": 845,
      "ए": 846,
      "ऑ": 847,
      "औ": 848,
      "क": 849,
      "ख": 850,
      "ग": 851,
      "च": 852,
      "छ": 853,
      "ज": 854,
      "झ": 855,
      "ञ": 856,
      "ट": 857,
      "ड": 858,
      "ण": 859,
      "त": 860,
      "थ": 861,
      "द": 862,
      "ध": 863,
      "न": 864,
      "प": 865,
      "फ": 866,
      "ब": 867,
      "भ": 868,
      "म": 869,
      "य": 870,
      "र": 871,
      "ल": 872,
      "व": 873,
      "श": 874,
      "स": 875,
      "ह": 876,
      "़": 877,
      "ा": 878,
      "ि": 879,
      "ी": 880,
      "ु": 881,
      "ृ": 882,
      "े": 883,
      "ै": 884,
      "ो": 885,
      "ौ": 886,
      "्": 887,
      "।": 888,
      "ং": 889,
      "অ": 890,
      "আ": 891,
      "এ": 892,
      "ক": 893,
      "খ": 894,
      "গ": 895,
      "চ": 896,
      "ছ": 897,
      "জ": 898,
      "ট": 899,
      "ঠ": 900,
      "ড": 901,
      "ঢ": 902,
      "ত": 903,
      "থ": 904,
      "দ": 905,
      "ন": 906,
      "প": 907,
      "ফ": 908,
      "ব": 909,
      "ভ": 910,
      "ম": 911,
      "য": 912,
      "র": 913,
      "ল": 914,
      "স": 915,
      "়": 916,
      "া": 917,
      "ি": 918,
      "ী": 919,
      "ু": 920,
      "ে": 921,
      "ো": 922,
      "্": 923,
      "০": 924,
      "১": 925,
      "২": 926,
      "৩": 927,
      "৪": 928,
      "৫": 929,
      "৬": 930,
      "৭": 931,
      "৯": 932,
      "৳": 933,
      "ਖ": 934,
      "਱": 935,
      "ਸ": 936,
      "ਿ": 937,
      "ੀ": 938,
      "੡": 939,
      "ੱ": 940,
      "ੳ": 941,
      "૯": 942,
      "ଠ": 943,
      "இ": 944,
      "க": 945,
      "ட": 946,
      "த": 947,
      "ன": 948,
      "ப": 949,
      "ம": 950,
      "ல": 951,
      "ழ": 952,
      "வ": 953,
      "ா": 954,
      "ி": 955,
      "ெ": 956,
      "ோ": 957,
      "்": 958,
      "ం": 959,
      "అ": 960,
      "ఆ": 961,
      "ఉ": 962,
      "క": 963,
      "గ": 964,
      "చ": 965,
      "జ": 966,
      "ట": 967,
      "డ": 968,
      "త": 969,
      "ద": 970,
      "ధ": 971,
      "న": 972,
      "ప": 973,
      "ఫ": 974,
      "బ": 975,
      "భ": 976,
      "మ": 977,
      "య": 978,
      "ర": 979,
      "ల": 980,
      "వ": 981,
      "ష": 982,
      "స": 983,
      "హ": 984,
      "ా": 985,
      "ి": 986,
      "ీ": 987,
      "ు": 988,
      "ె": 989,
      "ే": 990,
      "ై": 991,
      "ొ": 992,
      "ో": 993,
      "్": 994,
      "ಂ": 995,
      "ಆ": 996,
      "ಕ": 997,
      "ಗ": 998,
      "ಜ": 999,
      "ಡ": 1000,
      "ದ": 1001,
      "ಧ": 1002,
      "ನ": 1003,
      "ಪ": 1004,
      "ಬ": 1005,
      "ಮ": 1006,
      "ಯ": 1007,
      "ರ": 1008,
      "ಲ": 1009,
      "ಳ": 1010,
      "ವ": 1011,
      "ಶ": 1012,
      "ಸ": 1013,
      "ಹ": 1014,
      "ಾ": 1015,
      "ು": 1016,
      "ೂ": 1017,
      "ೆ": 1018,
      "ೇ": 1019,
      "ೈ": 1020,
      "ೊ": 1021,
      "ೋ": 1022,
      "್": 1023,
      "ം": 1024,
      "ക": 1025,
      "ര": 1026,
      "ള": 1027,
      "േ": 1028,
      "൥": 1029,
      "൭": 1030,
      "ඈ": 1031,
      "ර": 1032,
      "ු": 1033,
      "ก": 1034,
      "ข": 1035,
      "ค": 1036,
      "ง": 1037,
      "จ": 1038,
      "ฉ": 1039,
      "ช": 1040,
      "ซ": 1041,
      "ญ": 1042,
      "ณ": 1043,
      "ด": 1044,
      "ต": 1045,
      "ถ": 1046,
      "ท": 1047,
      "ธ": 1048,
      "น": 1049,
      "บ": 1050,
      "ป": 1051,
      "ผ": 1052,
      "ฝ": 1053,
      "พ": 1054,
      "ฟ": 1055,
      "ภ": 1056,
      "ม": 1057,
      "ย": 1058,
      "ฤ": 1059,
      "ล": 1060,
      "ว": 1061,
      "ศ": 1062,
      "ษ": 1063,
      "ส": 1064,
      "ห": 1065,
      "อ": 1066,
      "ฯ": 1067,
      "ะ": 1068,
      "ั": 1069,
      "า": 1070,
      "ิ": 1071,
      "ี": 1072,
      "ึ": 1073,
      "ื": 1074,
      "ุ": 1075,
      "ู": 1076,
      "฿": 1077,
      "เ": 1078,
      "แ": 1079,
      "โ": 1080,
      "ใ": 1081,
      "ไ": 1082,
      "ๆ": 1083,
      "็": 1084,
      "่": 1085,
      "้": 1086,
      "๊": 1087,
      "์": 1088,
      "ํ": 1089,
      "๎": 1090,
      "ກ": 1091,
      "ຖ": 1092,
      "ທ": 1093,
      "ນ": 1094,
      "ປ": 1095,
      "ມ": 1096,
      "ວ": 1097,
      "ໄ": 1098,
      "້": 1099,
      "༄": 1100,
      "ཆ": 1101,
      "ཋ": 1102,
      "ཎ": 1103,
      "ོ": 1104,
      "࿼": 1105,
      "က": 1106,
      "င": 1107,
      "ည": 1108,
      "တ": 1109,
      "ဒ": 1110,
      "န": 1111,
      "ပ": 1112,
      "ယ": 1113,
      "သ": 1114,
      "ိ": 1115,
      "ီ": 1116,
      "ု": 1117,
      "ေ": 1118,
      "း": 1119,
      "်": 1120,
      "ြ": 1121,
      "Ⴝ": 1122,
      "ჰ": 1123,
      "ჷ": 1124,
      "ቨ": 1125,
      "ቩ": 1126,
      "ቴ": 1127,
      "ጇ": 1128,
      "፨": 1129,
      "Ꭰ": 1130,
      "Ꭲ": 1131,
      "Ꭶ": 1132,
      "Ꭺ": 1133,
      "Ꭼ": 1134,
      "Ꮋ": 1135,
      "Ꮒ": 1136,
      "Ꮕ": 1137,
      "Ꮟ": 1138,
      "Ꮩ": 1139,
      "Ꮪ": 1140,
      "Ꮵ": 1141,
      "Ꮶ": 1142,
      "Ᏻ": 1143,
      "Ᏼ": 1144,
      "ᐃ": 1145,
      "ᐅ": 1146,
      "ᐈ": 1147,
      "ᐩ": 1148,
      "ᐳ": 1149,
      "ᑎ": 1150,
      "ᑐ": 1151,
      "ᑦ": 1152,
      "ᑭ": 1153,
      "ᒃ": 1154,
      "ᒪ": 1155,
      "ᓄ": 1156,
      "ᓅ": 1157,
      "ᖇ": 1158,
      "ᗑ": 1159,
      "ᗧ": 1160,
      "ᗪ": 1161,
      "ᚋ": 1162,
      "ᚏ": 1163,
      "ᚐ": 1164,
      "ᚒ": 1165,
      "ᚔ": 1166,
      "᚛": 1167,
      "᚜": 1168,
      "ᚢ": 1169,
      "ᚱ": 1170,
      "ᚴ": 1171,
      "ᚾ": 1172,
      "ᛅ": 1173,
      "ᛏ": 1174,
      "ᛘ": 1175,
      "ខ": 1176,
      "ភ": 1177,
      "ម": 1178,
      "រ": 1179,
      "ស": 1180,
      "ា": 1181,
      "ែ": 1182,
      "្": 1183,
      "᠌": 1184,
      "ᥙ": 1185,
      "ᥱ": 1186,
      "ᥲ": 1187,
      "᧐": 1188,
      "Პ": 1189,
      "Ქ": 1190,
      "ᴉ": 1191,
      "ᴓ": 1192,
      "ᴖ": 1193,
      "ᴘ": 1194,
      "ᴡ": 1195,
      "ᵻ": 1196,
      "᷉": 1197,
      "ḇ": 1198,
      "ḍ": 1199,
      "ḏ": 1200,
      "ḗ": 1201,
      "ḡ": 1202,
      "Ḥ": 1203,
      "ḥ": 1204,
      "ḧ": 1205,
      "Ḫ": 1206,
      "ḫ": 1207,
      "Ḱ": 1208,
      "ḱ": 1209,
      "Ḳ": 1210,
      "ḳ": 1211,
      "Ḵ": 1212,
      "ḵ": 1213,
      "Ḽ": 1214,
      "ḽ": 1215,
      "ṁ": 1216,
      "ṃ": 1217,
      "ṅ": 1218,
      "ṇ": 1219,
      "ṛ": 1220,
      "ṡ": 1221,
      "ṫ": 1222,
      "Ṭ": 1223,
      "ṭ": 1224,
      "ṯ": 1225,
      "Ṹ": 1226,
      "Ẓ": 1227,
      "ẓ": 1228,
      "Ẕ": 1229,
      "ẕ": 1230,
      "ẞ": 1231,
      "Ạ": 1232,
      "ạ": 1233,
      "Ả": 1234,
      "ả": 1235,
      "ấ": 1236,
      "ầ": 1237,
      "ẩ": 1238,
      "ẫ": 1239,
      "ậ": 1240,
      "ắ": 1241,
      "ằ": 1242,
      "ẳ": 1243,
      "ẵ": 1244,
      "ặ": 1245,
      "Ẹ": 1246,
      "ẻ": 1247,
      "ẽ": 1248,
      "Ế": 1249,
      "ế": 1250,
      "ề": 1251,
      "ể": 1252,
      "ễ": 1253,
      "ệ": 1254,
      "ỉ": 1255,
      "Ị": 1256,
      "ọ": 1257,
      "ỏ": 1258,
      "Ố": 1259,
      "ố": 1260,
      "ồ": 1261,
      "ổ": 1262,
      "ỗ": 1263,
      "Ộ": 1264,
      "ộ": 1265,
      "ớ": 1266,
      "ờ": 1267,
      "Ở": 1268,
      "ở": 1269,
      "ỡ": 1270,
      "Ợ": 1271,
      "ợ": 1272,
      "ụ": 1273,
      "Ủ": 1274,
      "ủ": 1275,
      "ứ": 1276,
      "ừ": 1277,
      "ử": 1278,
      "ữ": 1279,
      "ự": 1280,
      "ỳ": 1281,
      "ỷ": 1282,
      "ỹ": 1283,
      "ἀ": 1284,
      "ἁ": 1285,
      "ἄ": 1286,
      "ἅ": 1287,
      "Ἀ": 1288,
      "Ἁ": 1289,
      "Ἄ": 1290,
      "Ἅ": 1291,
      "ἐ": 1292,
      "ἑ": 1293,
      "ἔ": 1294,
      "ἕ": 1295,
      "Ἐ": 1296,
      "Ἑ": 1297,
      "Ἔ": 1298,
      "ἡ": 1299,
      "ἦ": 1300,
      "Ἡ": 1301,
      "ἰ": 1302,
      "ἱ": 1303,
      "ἴ": 1304,
      "ἵ": 1305,
      "ἶ": 1306,
      "Ἰ": 1307,
      "Ἱ": 1308,
      "Ἴ": 1309,
      "ὀ": 1310,
      "ὁ": 1311,
      "ὃ": 1312,
      "ὄ": 1313,
      "ὅ": 1314,
      "Ὀ": 1315,
      "Ὁ": 1316,
      "ὐ": 1317,
      "ὑ": 1318,
      "ὔ": 1319,
      "ὕ": 1320,
      "ὖ": 1321,
      "Ὕ": 1322,
      "ὥ": 1323,
      "ὧ": 1324,
      "Ὡ": 1325,
      "ὰ": 1326,
      "ὲ": 1327,
      "ὴ": 1328,
      "ὶ": 1329,
      "ὸ": 1330,
      "ὺ": 1331,
      "ὼ": 1332,
      "ᾅ": 1333,
      "ᾳ": 1334,
      "ᾶ": 1335,
      "Ᾱ": 1336,
      "ῃ": 1337,
      "ῆ": 1338,
      "ῇ": 1339,
      "ῖ": 1340,
      "Ῐ": 1341,
      "ῥ": 1342,
      "ῦ": 1343,
      "Ῥ": 1344,
      "ῳ": 1345,
      "ῶ": 1346,
      "ῷ": 1347,
      "ῼ": 1348,
      "‒": 1349,
      "―": 1350,
      "‖": 1351,
      "‛": 1352,
      "‟": 1353,
      "‡": 1354,
      "‣": 1355,
      "‧": 1356,
      "‫": 1357,
      "‭": 1358,
      "‱": 1359,
      "′": 1360,
      "‹": 1361,
      "※": 1362,
      "⁃": 1363,
      "⁄": 1364,
      "⁕": 1365,
      "⁝": 1366,
      "⁡": 1367,
      "⁣": 1368,
      "⁦": 1369,
      "⁩": 1370,
      "₠": 1371,
      "₡": 1372,
      "₣": 1373,
      "₤": 1374,
      "₦": 1375,
      "₪": 1376,
      "₮": 1377,
      "₱": 1378,
      "₴": 1379,
      "₵": 1380,
      "₸": 1381,
      "₹": 1382,
      "₽": 1383,
      "₾": 1384,
      "₿": 1385,
      "⃗": 1386,
      "⃰": 1387,
      "℗": 1388,
      "℘": 1389,
      "℧": 1390,
      "←": 1391,
      "↑": 1392,
      "↓": 1393,
      "↔": 1394,
      "↖": 1395,
      "↗": 1396,
      "↘": 1397,
      "↛": 1398,
      "↠": 1399,
      "↦": 1400,
      "↪": 1401,
      "↳": 1402,
      "↵": 1403,
      "↷": 1404,
      "↸": 1405,
      "⇌": 1406,
      "⇐": 1407,
      "⇑": 1408,
      "⇒": 1409,
      "⇓": 1410,
      "⇔": 1411,
      "⇗": 1412,
      "⇛": 1413,
      "⇢": 1414,
      "⇣": 1415,
      "⇧": 1416,
      "⇨": 1417,
      "⇲": 1418,
      "∀": 1419,
      "∂": 1420,
      "∃": 1421,
      "∅": 1422,
      "∇": 1423,
      "∈": 1424,
      "∉": 1425,
      "∎": 1426,
      "∏": 1427,
      "∑": 1428,
      "−": 1429,
      "∕": 1430,
      "∗": 1431,
      "∘": 1432,
      "∙": 1433,
      "∝": 1434,
      "∟": 1435,
      "∣": 1436,
      "∨": 1437,
      "∩": 1438,
      "∫": 1439,
      "∶": 1440,
      "∼": 1441,
      "≅": 1442,
      "≈": 1443,
      "≐": 1444,
      "≠": 1445,
      "≡": 1446,
      "≤": 1447,
      "≥": 1448,
      "≫": 1449,
      "≽": 1450,
      "⊃": 1451,
      "⊆": 1452,
      "⊕": 1453,
      "⊗": 1454,
      "⊞": 1455,
      "⊠": 1456,
      "⊱": 1457,
      "⊹": 1458,
      "⋅": 1459,
      "⋆": 1460,
      "⋙": 1461,
      "⋮": 1462,
      "⋯": 1463,
      "⋱": 1464,
      "⌀": 1465,
      "⌃": 1466,
      "⌊": 1467,
      "⌋": 1468,
      "⌒": 1469,
      "⌘": 1470,
      "⌚": 1471,
      "⌛": 1472,
      "⌥": 1473,
      "⌨": 1474,
      "⌵": 1475,
      "⍟": 1476,
      "⎙": 1477,
      "⎪": 1478,
      "⎮": 1479,
      "⎯": 1480,
      "⎼": 1481,
      "⏎": 1482,
      "⏤": 1483,
      "⏩": 1484,
      "⏬": 1485,
      "⏮": 1486,
      "⏰": 1487,
      "⏱": 1488,
      "⏳": 1489,
      "│": 1490,
      "┇": 1491,
      "┌": 1492,
      "└": 1493,
      "┘": 1494,
      "├": 1495,
      "┠": 1496,
      "┼": 1497,
      "═": 1498,
      "▂": 1499,
      "▄": 1500,
      "█": 1501,
      "▌": 1502,
      "▐": 1503,
      "░": 1504,
      "▒": 1505,
      "▓": 1506,
      "□": 1507,
      "▣": 1508,
      "▪": 1509,
      "▫": 1510,
      "▬": 1511,
      "▭": 1512,
      "▲": 1513,
      "△": 1514,
      "▴": 1515,
      "▶": 1516,
      "▸": 1517,
      "▻": 1518,
      "▼": 1519,
      "▾": 1520,
      "◀": 1521,
      "◄": 1522,
      "◅": 1523,
      "◆": 1524,
      "◈": 1525,
      "◊": 1526,
      "○": 1527,
      "◎": 1528,
      "◐": 1529,
      "◗": 1530,
      "◘": 1531,
      "◙": 1532,
      "◦": 1533,
      "◼": 1534,
      "◽": 1535,
      "◾": 1536,
      "☀": 1537,
      "☁": 1538,
      "☂": 1539,
      "★": 1540,
      "☆": 1541,
      "☎": 1542,
      "☏": 1543,
      "☐": 1544,
      "☑": 1545,
      "☔": 1546,
      "☕": 1547,
      "☘": 1548,
      "☛": 1549,
      "☝": 1550,
      "☟": 1551,
      "☠": 1552,
      "☢": 1553,
      "☣": 1554,
      "☩": 1555,
      "☪": 1556,
      "☫": 1557,
      "☭": 1558,
      "☮": 1559,
      "☯": 1560,
      "☰": 1561,
      "☹": 1562,
      "☺": 1563,
      "☻": 1564,
      "☼": 1565,
      "☾": 1566,
      "♀": 1567,
      "♂": 1568,
      "♄": 1569,
      "♈": 1570,
      "♉": 1571,
      "♊": 1572,
      "♋": 1573,
      "♌": 1574,
      "♍": 1575,
      "♎": 1576,
      "♏": 1577,
      "♐": 1578,
      "♑": 1579,
      "♒": 1580,
      "♓": 1581,
      "♔": 1582,
      "♕": 1583,
      "♖": 1584,
      "♗": 1585,
      "♘": 1586,
      "♙": 1587,
      "♚": 1588,
      "♛": 1589,
      "♟": 1590,
      "♠": 1591,
      "♡": 1592,
      "♢": 1593,
      "♣": 1594,
      "♤": 1595,
      "♥": 1596,
      "♦": 1597,
      "♨": 1598,
      "♪": 1599,
      "♫": 1600,
      "♬": 1601,
      "♭": 1602,
      "♯": 1603,
      "♱": 1604,
      "♾": 1605,
      "♿": 1606,
      "⚈": 1607,
      "⚑": 1608,
      "⚔": 1609,
      "⚕": 1610,
      "⚖": 1611,
      "⚙": 1612,
      "⚛": 1613,
      "⚜": 1614,
      "⚠": 1615,
      "⚡": 1616,
      "⚪": 1617,
      "⚫": 1618,
      "⚽": 1619,
      "⛄": 1620,
      "⛅": 1621,
      "⛏": 1622,
      "⛓": 1623,
      "⛔": 1624,
      "⛰": 1625,
      "⛱": 1626,
      "⛵": 1627,
      "⛺": 1628,
      "⛽": 1629,
      "✁": 1630,
      "✂": 1631,
      "✄": 1632,
      "✅": 1633,
      "✆": 1634,
      "✈": 1635,
      "✉": 1636,
      "✊": 1637,
      "✋": 1638,
      "✌": 1639,
      "✍": 1640,
      "✎": 1641,
      "✏": 1642,
      "✒": 1643,
      "✓": 1644,
      "✔": 1645,
      "✕": 1646,
      "✖": 1647,
      "✗": 1648,
      "✘": 1649,
      "✚": 1650,
      "✤": 1651,
      "✦": 1652,
      "✧": 1653,
      "✨": 1654,
      "✩": 1655,
      "✪": 1656,
      "✫": 1657,
      "✭": 1658,
      "✮": 1659,
      "✯": 1660,
      "✰": 1661,
      "✱": 1662,
      "✳": 1663,
      "✴": 1664,
      "✶": 1665,
      "✷": 1666,
      "✹": 1667,
      "✻": 1668,
      "✽": 1669,
      "✿": 1670,
      "❀": 1671,
      "❃": 1672,
      "❄": 1673,
      "❇": 1674,
      "❋": 1675,
      "❌": 1676,
      "❍": 1677,
      "❎": 1678,
      "❏": 1679,
      "❑": 1680,
      "❓": 1681,
      "❔": 1682,
      "❕": 1683,
      "❖": 1684,
      "❗": 1685,
      "❜": 1686,
      "❝": 1687,
      "❞": 1688,
      "❠": 1689,
      "❣": 1690,
      "❤": 1691,
      "❥": 1692,
      "❦": 1693,
      "❧": 1694,
      "❮": 1695,
      "❯": 1696,
      "❰": 1697,
      "❱": 1698,
      "❴": 1699,
      "❵": 1700,
      "❶": 1701,
      "❹": 1702,
      "❺": 1703,
      "➀": 1704,
      "➁": 1705,
      "➂": 1706,
      "➃": 1707,
      "➄": 1708,
      "➊": 1709,
      "➌": 1710,
      "➔": 1711,
      "➕": 1712,
      "➖": 1713,
      "➙": 1714,
      "➛": 1715,
      "➜": 1716,
      "➝": 1717,
      "➞": 1718,
      "➠": 1719,
      "➡": 1720,
      "➢": 1721,
      "➣": 1722,
      "➤": 1723,
      "➥": 1724,
      "➦": 1725,
      "➧": 1726,
      "➨": 1727,
      "➪": 1728,
      "➯": 1729,
      "➰": 1730,
      "➸": 1731,
      "➹": 1732,
      "➺": 1733,
      "➽": 1734,
      "⟩": 1735,
      "⟵": 1736,
      "⟶": 1737,
      "⠀": 1738,
      "⠇": 1739,
      "⠓": 1740,
      "⠜": 1741,
      "⤓": 1742,
      "⤤": 1743,
      "⤴": 1744,
      "⤵": 1745,
      "⦁": 1746,
      "⬅": 1747,
      "⬆": 1748,
      "⬇": 1749,
      "⬛": 1750,
      "⭐": 1751,
      "⭕": 1752,
      "⭣": 1753,
      "⮚": 1754,
      "Ɑ": 1755,
      "Ⲉ": 1756,
      "Ⲛ": 1757,
      "Ⲟ": 1758,
      "ⲟ": 1759,
      "ⲭ": 1760,
      "⸙": 1761,
      "⸠": 1762,
      "⸱": 1763,
      "⸺": 1764,
      "⹡": 1765,
      "〇": 1766,
      "〈": 1767,
      "〉": 1768,
      "《": 1769,
      "「": 1770,
      "」": 1771,
      "『": 1772,
      "』": 1773,
      "【": 1774,
      "】": 1775,
      "〖": 1776,
      "〗": 1777,
      "〜": 1778,
      "あ": 1779,
      "い": 1780,
      "う": 1781,
      "え": 1782,
      "お": 1783,
      "か": 1784,
      "が": 1785,
      "き": 1786,
      "ぎ": 1787,
      "く": 1788,
      "け": 1789,
      "げ": 1790,
      "こ": 1791,
      "ご": 1792,
      "さ": 1793,
      "し": 1794,
      "じ": 1795,
      "す": 1796,
      "ず": 1797,
      "せ": 1798,
      "そ": 1799,
      "た": 1800,
      "だ": 1801,
      "ち": 1802,
      "っ": 1803,
      "つ": 1804,
      "づ": 1805,
      "て": 1806,
      "で": 1807,
      "と": 1808,
      "ど": 1809,
      "な": 1810,
      "に": 1811,
      "の": 1812,
      "は": 1813,
      "ば": 1814,
      "ぱ": 1815,
      "ひ": 1816,
      "び": 1817,
      "ふ": 1818,
      "ぶ": 1819,
      "へ": 1820,
      "べ": 1821,
      "ぺ": 1822,
      "ほ": 1823,
      "ぼ": 1824,
      "ぽ": 1825,
      "ま": 1826,
      "み": 1827,
      "む": 1828,
      "め": 1829,
      "も": 1830,
      "ゃ": 1831,
      "や": 1832,
      "ゅ": 1833,
      "ゆ": 1834,
      "ょ": 1835,
      "よ": 1836,
      "ら": 1837,
      "り": 1838,
      "る": 1839,
      "れ": 1840,
      "ろ": 1841,
      "わ": 1842,
      "を": 1843,
      "ん": 1844,
      "゙": 1845,
      "゚": 1846,
      "ァ": 1847,
      "ア": 1848,
      "ィ": 1849,
      "イ": 1850,
      "ゥ": 1851,
      "ウ": 1852,
      "エ": 1853,
      "ォ": 1854,
      "オ": 1855,
      "カ": 1856,
      "ガ": 1857,
      "キ": 1858,
      "ギ": 1859,
      "ク": 1860,
      "グ": 1861,
      "ケ": 1862,
      "ゲ": 1863,
      "コ": 1864,
      "ゴ": 1865,
      "サ": 1866,
      "ザ": 1867,
      "シ": 1868,
      "ジ": 1869,
      "ス": 1870,
      "ズ": 1871,
      "セ": 1872,
      "ゼ": 1873,
      "ソ": 1874,
      "タ": 1875,
      "ダ": 1876,
      "チ": 1877,
      "ヂ": 1878,
      "ッ": 1879,
      "ツ": 1880,
      "テ": 1881,
      "デ": 1882,
      "ト": 1883,
      "ド": 1884,
      "ナ": 1885,
      "ニ": 1886,
      "ヌ": 1887,
      "ネ": 1888,
      "ノ": 1889,
      "ハ": 1890,
      "バ": 1891,
      "パ": 1892,
      "ヒ": 1893,
      "ビ": 1894,
      "ピ": 1895,
      "フ": 1896,
      "ブ": 1897,
      "プ": 1898,
      "ヘ": 1899,
      "ベ": 1900,
      "ペ": 1901,
      "ホ": 1902,
      "ボ": 1903,
      "ポ": 1904,
      "マ": 1905,
      "ミ": 1906,
      "ム": 1907,
      "メ": 1908,
      "モ": 1909,
      "ャ": 1910,
      "ヤ": 1911,
      "ュ": 1912,
      "ユ": 1913,
      "ョ": 1914,
      "ヨ": 1915,
      "ラ": 1916,
      "リ": 1917,
      "ル": 1918,
      "レ": 1919,
      "ロ": 1920,
      "ワ": 1921,
      "ン": 1922,
      "ヴ": 1923,
      "ヾ": 1924,
      "ㄨ": 1925,
      "ㄩ": 1926,
      "㰠": 1927,
      "㱮": 1928,
      "㳶": 1929,
      "㹡": 1930,
      "㹮": 1931,
      "㹳": 1932,
      "䜣": 1933,
      "䧡": 1934,
      "一": 1935,
      "丁": 1936,
      "七": 1937,
      "万": 1938,
      "三": 1939,
      "上": 1940,
      "下": 1941,
      "丌": 1942,
      "不": 1943,
      "与": 1944,
      "丑": 1945,
      "专": 1946,
      "且": 1947,
      "世": 1948,
      "丙": 1949,
      "业": 1950,
      "东": 1951,
      "丝": 1952,
      "並": 1953,
      "丨": 1954,
      "个": 1955,
      "中": 1956,
      "丰": 1957,
      "临": 1958,
      "丶": 1959,
      "为": 1960,
      "主": 1961,
      "丼": 1962,
      "丽": 1963,
      "举": 1964,
      "久": 1965,
      "义": 1966,
      "之": 1967,
      "乌": 1968,
      "乐": 1969,
      "乘": 1970,
      "乙": 1971,
      "九": 1972,
      "也": 1973,
      "买": 1974,
      "乳": 1975,
      "了": 1976,
      "争": 1977,
      "事": 1978,
      "二": 1979,
      "于": 1980,
      "云": 1981,
      "互": 1982,
      "五": 1983,
      "井": 1984,
      "亜": 1985,
      "交": 1986,
      "产": 1987,
      "亨": 1988,
      "享": 1989,
      "京": 1990,
      "亭": 1991,
      "亮": 1992,
      "人": 1993,
      "亿": 1994,
      "什": 1995,
      "今": 1996,
      "介": 1997,
      "从": 1998,
      "仏": 1999,
      "仔": 2000,
      "仕": 2001,
      "他": 2002,
      "仙": 2003,
      "代": 2004,
      "以": 2005,
      "仪": 2006,
      "们": 2007,
      "仲": 2008,
      "件": 2009,
      "价": 2010,
      "任": 2011,
      "份": 2012,
      "企": 2013,
      "伊": 2014,
      "伎": 2015,
      "会": 2016,
      "伝": 2017,
      "传": 2018,
      "伦": 2019,
      "但": 2020,
      "位": 2021,
      "住": 2022,
      "体": 2023,
      "何": 2024,
      "佗": 2025,
      "余": 2026,
      "作": 2027,
      "你": 2028,
      "使": 2029,
      "來": 2030,
      "侈": 2031,
      "侍": 2032,
      "供": 2033,
      "便": 2034,
      "保": 2035,
      "俟": 2036,
      "信": 2037,
      "俥": 2038,
      "修": 2039,
      "倉": 2040,
      "候": 2041,
      "倫": 2042,
      "值": 2043,
      "健": 2044,
      "側": 2045,
      "偵": 2046,
      "偷": 2047,
      "傌": 2048,
      "備": 2049,
      "催": 2050,
      "傲": 2051,
      "僅": 2052,
      "像": 2053,
      "儀": 2054,
      "優": 2055,
      "儿": 2056,
      "元": 2057,
      "兄": 2058,
      "充": 2059,
      "光": 2060,
      "克": 2061,
      "免": 2062,
      "入": 2063,
      "全": 2064,
      "八": 2065,
      "公": 2066,
      "六": 2067,
      "共": 2068,
      "关": 2069,
      "兴": 2070,
      "兵": 2071,
      "其": 2072,
      "具": 2073,
      "典": 2074,
      "养": 2075,
      "兼": 2076,
      "冀": 2077,
      "内": 2078,
      "冒": 2079,
      "冕": 2080,
      "写": 2081,
      "冬": 2082,
      "冲": 2083,
      "决": 2084,
      "净": 2085,
      "処": 2086,
      "凱": 2087,
      "出": 2088,
      "函": 2089,
      "刀": 2090,
      "刃": 2091,
      "分": 2092,
      "切": 2093,
      "刊": 2094,
      "划": 2095,
      "则": 2096,
      "別": 2097,
      "利": 2098,
      "别": 2099,
      "到": 2100,
      "制": 2101,
      "券": 2102,
      "刺": 2103,
      "則": 2104,
      "前": 2105,
      "剛": 2106,
      "剣": 2107,
      "割": 2108,
      "創": 2109,
      "劇": 2110,
      "劉": 2111,
      "力": 2112,
      "办": 2113,
      "功": 2114,
      "加": 2115,
      "务": 2116,
      "动": 2117,
      "助": 2118,
      "勇": 2119,
      "勒": 2120,
      "動": 2121,
      "勝": 2122,
      "勿": 2123,
      "包": 2124,
      "化": 2125,
      "北": 2126,
      "匮": 2127,
      "区": 2128,
      "医": 2129,
      "區": 2130,
      "十": 2131,
      "升": 2132,
      "午": 2133,
      "华": 2134,
      "协": 2135,
      "卐": 2136,
      "卒": 2137,
      "協": 2138,
      "单": 2139,
      "南": 2140,
      "単": 2141,
      "博": 2142,
      "占": 2143,
      "卡": 2144,
      "卯": 2145,
      "卵": 2146,
      "卷": 2147,
      "厂": 2148,
      "历": 2149,
      "厚": 2150,
      "原": 2151,
      "厥": 2152,
      "厦": 2153,
      "厧": 2154,
      "去": 2155,
      "参": 2156,
      "叉": 2157,
      "友": 2158,
      "反": 2159,
      "发": 2160,
      "取": 2161,
      "受": 2162,
      "变": 2163,
      "口": 2164,
      "古": 2165,
      "可": 2166,
      "台": 2167,
      "史": 2168,
      "叶": 2169,
      "号": 2170,
      "司": 2171,
      "合": 2172,
      "吉": 2173,
      "吊": 2174,
      "同": 2175,
      "名": 2176,
      "后": 2177,
      "向": 2178,
      "吗": 2179,
      "君": 2180,
      "否": 2181,
      "听": 2182,
      "启": 2183,
      "吴": 2184,
      "吸": 2185,
      "吹": 2186,
      "呀": 2187,
      "告": 2188,
      "周": 2189,
      "味": 2190,
      "命": 2191,
      "和": 2192,
      "咖": 2193,
      "咸": 2194,
      "品": 2195,
      "哇": 2196,
      "哉": 2197,
      "哦": 2198,
      "哲": 2199,
      "唐": 2200,
      "售": 2201,
      "唯": 2202,
      "唵": 2203,
      "商": 2204,
      "啊": 2205,
      "問": 2206,
      "啡": 2207,
      "喜": 2208,
      "單": 2209,
      "喰": 2210,
      "嗯": 2211,
      "嘉": 2212,
      "嘘": 2213,
      "器": 2214,
      "嚴": 2215,
      "四": 2216,
      "回": 2217,
      "因": 2218,
      "团": 2219,
      "団": 2220,
      "囧": 2221,
      "园": 2222,
      "囲": 2223,
      "围": 2224,
      "国": 2225,
      "图": 2226,
      "國": 2227,
      "園": 2228,
      "圖": 2229,
      "土": 2230,
      "在": 2231,
      "地": 2232,
      "圳": 2233,
      "场": 2234,
      "均": 2235,
      "坊": 2236,
      "坐": 2237,
      "坑": 2238,
      "坦": 2239,
      "垂": 2240,
      "垣": 2241,
      "埋": 2242,
      "城": 2243,
      "埔": 2244,
      "域": 2245,
      "基": 2246,
      "堂": 2247,
      "堡": 2248,
      "堯": 2249,
      "堰": 2250,
      "報": 2251,
      "場": 2252,
      "塊": 2253,
      "塔": 2254,
      "塞": 2255,
      "增": 2256,
      "墩": 2257,
      "壁": 2258,
      "壅": 2259,
      "壇": 2260,
      "壊": 2261,
      "士": 2262,
      "壮": 2263,
      "壱": 2264,
      "壽": 2265,
      "备": 2266,
      "変": 2267,
      "夏": 2268,
      "夕": 2269,
      "外": 2270,
      "多": 2271,
      "夜": 2272,
      "够": 2273,
      "夢": 2274,
      "大": 2275,
      "天": 2276,
      "太": 2277,
      "夫": 2278,
      "央": 2279,
      "头": 2280,
      "夹": 2281,
      "奇": 2282,
      "奈": 2283,
      "奏": 2284,
      "奕": 2285,
      "奢": 2286,
      "奥": 2287,
      "奨": 2288,
      "奪": 2289,
      "女": 2290,
      "奴": 2291,
      "她": 2292,
      "好": 2293,
      "如": 2294,
      "妄": 2295,
      "妊": 2296,
      "妮": 2297,
      "始": 2298,
      "姑": 2299,
      "姜": 2300,
      "姿": 2301,
      "威": 2302,
      "娠": 2303,
      "婷": 2304,
      "嫁": 2305,
      "子": 2306,
      "孔": 2307,
      "字": 2308,
      "孙": 2309,
      "孚": 2310,
      "季": 2311,
      "学": 2312,
      "學": 2313,
      "它": 2314,
      "宅": 2315,
      "宇": 2316,
      "守": 2317,
      "安": 2318,
      "宋": 2319,
      "完": 2320,
      "宗": 2321,
      "官": 2322,
      "定": 2323,
      "宝": 2324,
      "実": 2325,
      "客": 2326,
      "室": 2327,
      "宮": 2328,
      "宰": 2329,
      "害": 2330,
      "家": 2331,
      "容": 2332,
      "寂": 2333,
      "密": 2334,
      "富": 2335,
      "寛": 2336,
      "察": 2337,
      "寡": 2338,
      "實": 2339,
      "寶": 2340,
      "寺": 2341,
      "导": 2342,
      "専": 2343,
      "射": 2344,
      "将": 2345,
      "將": 2346,
      "專": 2347,
      "尊": 2348,
      "小": 2349,
      "尔": 2350,
      "就": 2351,
      "尼": 2352,
      "尽": 2353,
      "尾": 2354,
      "局": 2355,
      "居": 2356,
      "屈": 2357,
      "届": 2358,
      "屋": 2359,
      "展": 2360,
      "山": 2361,
      "岁": 2362,
      "岐": 2363,
      "岡": 2364,
      "峡": 2365,
      "峰": 2366,
      "島": 2367,
      "崎": 2368,
      "嵐": 2369,
      "川": 2370,
      "州": 2371,
      "巡": 2372,
      "工": 2373,
      "巨": 2374,
      "巳": 2375,
      "巴": 2376,
      "币": 2377,
      "市": 2378,
      "布": 2379,
      "师": 2380,
      "希": 2381,
      "帕": 2382,
      "帘": 2383,
      "帝": 2384,
      "帥": 2385,
      "師": 2386,
      "帮": 2387,
      "帰": 2388,
      "常": 2389,
      "幌": 2390,
      "幕": 2391,
      "幣": 2392,
      "干": 2393,
      "平": 2394,
      "年": 2395,
      "广": 2396,
      "広": 2397,
      "庄": 2398,
      "序": 2399,
      "库": 2400,
      "应": 2401,
      "店": 2402,
      "庚": 2403,
      "府": 2404,
      "度": 2405,
      "座": 2406,
      "康": 2407,
      "廳": 2408,
      "廷": 2409,
      "建": 2410,
      "开": 2411,
      "弄": 2412,
      "式": 2413,
      "弔": 2414,
      "引": 2415,
      "弘": 2416,
      "张": 2417,
      "張": 2418,
      "強": 2419,
      "强": 2420,
      "形": 2421,
      "彦": 2422,
      "彩": 2423,
      "彭": 2424,
      "影": 2425,
      "役": 2426,
      "彼": 2427,
      "往": 2428,
      "很": 2429,
      "徐": 2430,
      "徒": 2431,
      "得": 2432,
      "御": 2433,
      "微": 2434,
      "徳": 2435,
      "德": 2436,
      "心": 2437,
      "必": 2438,
      "志": 2439,
      "忘": 2440,
      "忠": 2441,
      "快": 2442,
      "念": 2443,
      "思": 2444,
      "急": 2445,
      "性": 2446,
      "怪": 2447,
      "总": 2448,
      "恋": 2449,
      "恩": 2450,
      "息": 2451,
      "悟": 2452,
      "悪": 2453,
      "悶": 2454,
      "情": 2455,
      "惠": 2456,
      "想": 2457,
      "意": 2458,
      "愛": 2459,
      "感": 2460,
      "慄": 2461,
      "慈": 2462,
      "慕": 2463,
      "慧": 2464,
      "慰": 2465,
      "慶": 2466,
      "懸": 2467,
      "戊": 2468,
      "戌": 2469,
      "戎": 2470,
      "戏": 2471,
      "成": 2472,
      "我": 2473,
      "戒": 2474,
      "戛": 2475,
      "戦": 2476,
      "戰": 2477,
      "戲": 2478,
      "戶": 2479,
      "戸": 2480,
      "所": 2481,
      "手": 2482,
      "承": 2483,
      "技": 2484,
      "抜": 2485,
      "护": 2486,
      "报": 2487,
      "担": 2488,
      "拉": 2489,
      "拊": 2490,
      "拍": 2491,
      "拔": 2492,
      "拜": 2493,
      "拳": 2494,
      "拼": 2495,
      "拿": 2496,
      "挀": 2497,
      "持": 2498,
      "指": 2499,
      "挑": 2500,
      "挡": 2501,
      "据": 2502,
      "排": 2503,
      "探": 2504,
      "控": 2505,
      "推": 2506,
      "描": 2507,
      "提": 2508,
      "揚": 2509,
      "揭": 2510,
      "揮": 2511,
      "援": 2512,
      "搠": 2513,
      "摄": 2514,
      "摡": 2515,
      "摩": 2516,
      "撃": 2517,
      "撒": 2518,
      "播": 2519,
      "擇": 2520,
      "操": 2521,
      "攀": 2522,
      "支": 2523,
      "收": 2524,
      "改": 2525,
      "攻": 2526,
      "放": 2527,
      "政": 2528,
      "教": 2529,
      "散": 2530,
      "数": 2531,
      "整": 2532,
      "文": 2533,
      "料": 2534,
      "斜": 2535,
      "斯": 2536,
      "新": 2537,
      "斷": 2538,
      "方": 2539,
      "於": 2540,
      "施": 2541,
      "旅": 2542,
      "族": 2543,
      "日": 2544,
      "早": 2545,
      "时": 2546,
      "昌": 2547,
      "明": 2548,
      "易": 2549,
      "昔": 2550,
      "昝": 2551,
      "星": 2552,
      "映": 2553,
      "春": 2554,
      "昧": 2555,
      "是": 2556,
      "昼": 2557,
      "显": 2558,
      "時": 2559,
      "晓": 2560,
      "晚": 2561,
      "晦": 2562,
      "晩": 2563,
      "普": 2564,
      "景": 2565,
      "暁": 2566,
      "暈": 2567,
      "暮": 2568,
      "曖": 2569,
      "曲": 2570,
      "更": 2571,
      "書": 2572,
      "曼": 2573,
      "曽": 2574,
      "最": 2575,
      "月": 2576,
      "有": 2577,
      "朋": 2578,
      "服": 2579,
      "朗": 2580,
      "朙": 2581,
      "望": 2582,
      "朝": 2583,
      "期": 2584,
      "木": 2585,
      "未": 2586,
      "末": 2587,
      "本": 2588,
      "札": 2589,
      "机": 2590,
      "朽": 2591,
      "权": 2592,
      "杆": 2593,
      "杉": 2594,
      "李": 2595,
      "杏": 2596,
      "材": 2597,
      "村": 2598,
      "杜": 2599,
      "条": 2600,
      "来": 2601,
      "杯": 2602,
      "東": 2603,
      "松": 2604,
      "林": 2605,
      "果": 2606,
      "枝": 2607,
      "架": 2608,
      "柄": 2609,
      "柔": 2610,
      "查": 2611,
      "柯": 2612,
      "柱": 2613,
      "栄": 2614,
      "标": 2615,
      "树": 2616,
      "栖": 2617,
      "栗": 2618,
      "校": 2619,
      "株": 2620,
      "根": 2621,
      "格": 2622,
      "案": 2623,
      "桑": 2624,
      "桜": 2625,
      "桥": 2626,
      "梁": 2627,
      "條": 2628,
      "梯": 2629,
      "梵": 2630,
      "梶": 2631,
      "检": 2632,
      "棋": 2633,
      "棠": 2634,
      "森": 2635,
      "椀": 2636,
      "椅": 2637,
      "検": 2638,
      "椠": 2639,
      "楊": 2640,
      "楫": 2641,
      "業": 2642,
      "極": 2643,
      "楽": 2644,
      "概": 2645,
      "榜": 2646,
      "様": 2647,
      "樂": 2648,
      "標": 2649,
      "模": 2650,
      "横": 2651,
      "橋": 2652,
      "機": 2653,
      "檔": 2654,
      "櫚": 2655,
      "權": 2656,
      "次": 2657,
      "欢": 2658,
      "欣": 2659,
      "欧": 2660,
      "款": 2661,
      "歇": 2662,
      "歌": 2663,
      "止": 2664,
      "正": 2665,
      "此": 2666,
      "步": 2667,
      "武": 2668,
      "歳": 2669,
      "死": 2670,
      "残": 2671,
      "殡": 2672,
      "殺": 2673,
      "殿": 2674,
      "母": 2675,
      "每": 2676,
      "比": 2677,
      "毗": 2678,
      "毽": 2679,
      "氀": 2680,
      "氏": 2681,
      "民": 2682,
      "气": 2683,
      "気": 2684,
      "氣": 2685,
      "水": 2686,
      "永": 2687,
      "汁": 2688,
      "汇": 2689,
      "汉": 2690,
      "汗": 2691,
      "江": 2692,
      "汤": 2693,
      "汪": 2694,
      "汵": 2695,
      "決": 2696,
      "汽": 2697,
      "汾": 2698,
      "沈": 2699,
      "沉": 2700,
      "沙": 2701,
      "没": 2702,
      "沢": 2703,
      "河": 2704,
      "油": 2705,
      "治": 2706,
      "沼": 2707,
      "泉": 2708,
      "法": 2709,
      "波": 2710,
      "注": 2711,
      "泽": 2712,
      "洋": 2713,
      "津": 2714,
      "洪": 2715,
      "洲": 2716,
      "活": 2717,
      "流": 2718,
      "浏": 2719,
      "浒": 2720,
      "浙": 2721,
      "浦": 2722,
      "浪": 2723,
      "海": 2724,
      "消": 2725,
      "涛": 2726,
      "涵": 2727,
      "涼": 2728,
      "淀": 2729,
      "深": 2730,
      "渀": 2731,
      "清": 2732,
      "減": 2733,
      "渡": 2734,
      "渤": 2735,
      "測": 2736,
      "港": 2737,
      "游": 2738,
      "湖": 2739,
      "湯": 2740,
      "湲": 2741,
      "湾": 2742,
      "満": 2743,
      "源": 2744,
      "準": 2745,
      "满": 2746,
      "滩": 2747,
      "漂": 2748,
      "演": 2749,
      "漢": 2750,
      "漫": 2751,
      "潤": 2752,
      "澤": 2753,
      "澳": 2754,
      "激": 2755,
      "瀬": 2756,
      "灘": 2757,
      "灣": 2758,
      "火": 2759,
      "炮": 2760,
      "点": 2761,
      "炽": 2762,
      "烟": 2763,
      "烤": 2764,
      "烧": 2765,
      "热": 2766,
      "無": 2767,
      "然": 2768,
      "焼": 2769,
      "煩": 2770,
      "煲": 2771,
      "熊": 2772,
      "熙": 2773,
      "熾": 2774,
      "燭": 2775,
      "爬": 2776,
      "爱": 2777,
      "爵": 2778,
      "爾": 2779,
      "片": 2780,
      "版": 2781,
      "牌": 2782,
      "牙": 2783,
      "牧": 2784,
      "物": 2785,
      "牭": 2786,
      "特": 2787,
      "犬": 2788,
      "狂": 2789,
      "狸": 2790,
      "狼": 2791,
      "猟": 2792,
      "獅": 2793,
      "獣": 2794,
      "玉": 2795,
      "王": 2796,
      "玩": 2797,
      "环": 2798,
      "现": 2799,
      "玲": 2800,
      "珍": 2801,
      "珠": 2802,
      "珩": 2803,
      "班": 2804,
      "現": 2805,
      "球": 2806,
      "理": 2807,
      "琳": 2808,
      "琴": 2809,
      "瑞": 2810,
      "瑤": 2811,
      "環": 2812,
      "甑": 2813,
      "甘": 2814,
      "生": 2815,
      "產": 2816,
      "用": 2817,
      "甪": 2818,
      "田": 2819,
      "由": 2820,
      "甲": 2821,
      "申": 2822,
      "电": 2823,
      "男": 2824,
      "甸": 2825,
      "町": 2826,
      "画": 2827,
      "界": 2828,
      "番": 2829,
      "當": 2830,
      "疆": 2831,
      "疼": 2832,
      "疾": 2833,
      "瘱": 2834,
      "癟": 2835,
      "癩": 2836,
      "発": 2837,
      "發": 2838,
      "白": 2839,
      "百": 2840,
      "的": 2841,
      "皇": 2842,
      "皮": 2843,
      "益": 2844,
      "监": 2845,
      "盖": 2846,
      "盧": 2847,
      "目": 2848,
      "直": 2849,
      "相": 2850,
      "省": 2851,
      "看": 2852,
      "県": 2853,
      "真": 2854,
      "着": 2855,
      "睉": 2856,
      "睖": 2857,
      "督": 2858,
      "矛": 2859,
      "矢": 2860,
      "知": 2861,
      "短": 2862,
      "石": 2863,
      "码": 2864,
      "砂": 2865,
      "研": 2866,
      "砕": 2867,
      "砲": 2868,
      "硬": 2869,
      "碕": 2870,
      "磨": 2871,
      "礦": 2872,
      "示": 2873,
      "礼": 2874,
      "社": 2875,
      "祈": 2876,
      "祐": 2877,
      "祓": 2878,
      "祖": 2879,
      "神": 2880,
      "禁": 2881,
      "福": 2882,
      "禧": 2883,
      "禪": 2884,
      "秀": 2885,
      "私": 2886,
      "秋": 2887,
      "种": 2888,
      "科": 2889,
      "秒": 2890,
      "租": 2891,
      "移": 2892,
      "稀": 2893,
      "程": 2894,
      "種": 2895,
      "稲": 2896,
      "積": 2897,
      "穎": 2898,
      "穴": 2899,
      "究": 2900,
      "空": 2901,
      "突": 2902,
      "立": 2903,
      "站": 2904,
      "竜": 2905,
      "競": 2906,
      "符": 2907,
      "第": 2908,
      "筆": 2909,
      "等": 2910,
      "筑": 2911,
      "答": 2912,
      "筷": 2913,
      "简": 2914,
      "算": 2915,
      "管": 2916,
      "節": 2917,
      "篇": 2918,
      "篥": 2919,
      "篭": 2920,
      "篮": 2921,
      "篳": 2922,
      "簡": 2923,
      "粉": 2924,
      "粕": 2925,
      "粤": 2926,
      "精": 2927,
      "糧": 2928,
      "系": 2929,
      "紀": 2930,
      "紅": 2931,
      "紙": 2932,
      "素": 2933,
      "索": 2934,
      "紫": 2935,
      "終": 2936,
      "絃": 2937,
      "経": 2938,
      "結": 2939,
      "統": 2940,
      "絵": 2941,
      "經": 2942,
      "維": 2943,
      "綿": 2944,
      "緑": 2945,
      "編": 2946,
      "練": 2947,
      "縣": 2948,
      "繁": 2949,
      "織": 2950,
      "繹": 2951,
      "續": 2952,
      "红": 2953,
      "纪": 2954,
      "纳": 2955,
      "线": 2956,
      "组": 2957,
      "经": 2958,
      "结": 2959,
      "绝": 2960,
      "统": 2961,
      "续": 2962,
      "网": 2963,
      "罗": 2964,
      "罚": 2965,
      "罪": 2966,
      "羅": 2967,
      "美": 2968,
      "義": 2969,
      "羹": 2970,
      "羽": 2971,
      "翻": 2972,
      "老": 2973,
      "考": 2974,
      "者": 2975,
      "耐": 2976,
      "耳": 2977,
      "耶": 2978,
      "聊": 2979,
      "联": 2980,
      "聖": 2981,
      "聚": 2982,
      "聞": 2983,
      "肃": 2984,
      "肅": 2985,
      "肉": 2986,
      "肌": 2987,
      "肖": 2988,
      "股": 2989,
      "肢": 2990,
      "育": 2991,
      "背": 2992,
      "胸": 2993,
      "能": 2994,
      "脈": 2995,
      "脉": 2996,
      "脑": 2997,
      "脚": 2998,
      "腊": 2999,
      "腹": 3000,
      "臣": 3001,
      "臧": 3002,
      "自": 3003,
      "致": 3004,
      "臺": 3005,
      "與": 3006,
      "舞": 3007,
      "航": 3008,
      "般": 3009,
      "船": 3010,
      "色": 3011,
      "艳": 3012,
      "艺": 3013,
      "艾": 3014,
      "节": 3015,
      "芝": 3016,
      "花": 3017,
      "芳": 3018,
      "芽": 3019,
      "苏": 3020,
      "若": 3021,
      "英": 3022,
      "范": 3023,
      "茶": 3024,
      "荒": 3025,
      "荔": 3026,
      "获": 3027,
      "菅": 3028,
      "菊": 3029,
      "菩": 3030,
      "華": 3031,
      "菲": 3032,
      "营": 3033,
      "萨": 3034,
      "葉": 3035,
      "著": 3036,
      "葬": 3037,
      "蒼": 3038,
      "蓮": 3039,
      "蔡": 3040,
      "蔵": 3041,
      "薩": 3042,
      "藍": 3043,
      "藤": 3044,
      "蘇": 3045,
      "蘭": 3046,
      "虎": 3047,
      "處": 3048,
      "號": 3049,
      "虫": 3050,
      "蛉": 3051,
      "蛋": 3052,
      "蜀": 3053,
      "蜜": 3054,
      "蝶": 3055,
      "融": 3056,
      "蠕": 3057,
      "行": 3058,
      "術": 3059,
      "街": 3060,
      "衣": 3061,
      "表": 3062,
      "袆": 3063,
      "被": 3064,
      "裸": 3065,
      "製": 3066,
      "複": 3067,
      "襄": 3068,
      "襤": 3069,
      "襲": 3070,
      "西": 3071,
      "要": 3072,
      "覇": 3073,
      "見": 3074,
      "規": 3075,
      "視": 3076,
      "覚": 3077,
      "覧": 3078,
      "親": 3079,
      "覺": 3080,
      "观": 3081,
      "规": 3082,
      "视": 3083,
      "览": 3084,
      "解": 3085,
      "言": 3086,
      "計": 3087,
      "討": 3088,
      "訓": 3089,
      "記": 3090,
      "訪": 3091,
      "訶": 3092,
      "試": 3093,
      "詩": 3094,
      "話": 3095,
      "詳": 3096,
      "誌": 3097,
      "語": 3098,
      "誠": 3099,
      "說": 3100,
      "説": 3101,
      "読": 3102,
      "課": 3103,
      "論": 3104,
      "謝": 3105,
      "證": 3106,
      "譚": 3107,
      "譜": 3108,
      "警": 3109,
      "議": 3110,
      "護": 3111,
      "计": 3112,
      "议": 3113,
      "记": 3114,
      "论": 3115,
      "讼": 3116,
      "设": 3117,
      "证": 3118,
      "诉": 3119,
      "词": 3120,
      "译": 3121,
      "试": 3122,
      "话": 3123,
      "语": 3124,
      "请": 3125,
      "谋": 3126,
      "豆": 3127,
      "豊": 3128,
      "豐": 3129,
      "象": 3130,
      "貝": 3131,
      "貞": 3132,
      "負": 3133,
      "貨": 3134,
      "貴": 3135,
      "費": 3136,
      "賀": 3137,
      "資": 3138,
      "賞": 3139,
      "賢": 3140,
      "質": 3141,
      "賴": 3142,
      "贏": 3143,
      "负": 3144,
      "财": 3145,
      "责": 3146,
      "质": 3147,
      "购": 3148,
      "贵": 3149,
      "贸": 3150,
      "费": 3151,
      "赁": 3152,
      "赏": 3153,
      "赛": 3154,
      "赞": 3155,
      "赤": 3156,
      "越": 3157,
      "趣": 3158,
      "足": 3159,
      "跃": 3160,
      "跡": 3161,
      "路": 3162,
      "踣": 3163,
      "蹟": 3164,
      "身": 3165,
      "車": 3166,
      "軍": 3167,
      "軽": 3168,
      "輅": 3169,
      "輪": 3170,
      "轄": 3171,
      "车": 3172,
      "轩": 3173,
      "轻": 3174,
      "载": 3175,
      "辛": 3176,
      "辞": 3177,
      "辣": 3178,
      "辰": 3179,
      "边": 3180,
      "辺": 3181,
      "达": 3182,
      "迅": 3183,
      "过": 3184,
      "迎": 3185,
      "运": 3186,
      "近": 3187,
      "还": 3188,
      "这": 3189,
      "进": 3190,
      "远": 3191,
      "违": 3192,
      "连": 3193,
      "述": 3194,
      "送": 3195,
      "适": 3196,
      "通": 3197,
      "速": 3198,
      "造": 3199,
      "連": 3200,
      "週": 3201,
      "進": 3202,
      "逸": 3203,
      "遊": 3204,
      "道": 3205,
      "達": 3206,
      "遠": 3207,
      "適": 3208,
      "選": 3209,
      "遺": 3210,
      "還": 3211,
      "邓": 3212,
      "邕": 3213,
      "那": 3214,
      "郁": 3215,
      "郎": 3216,
      "部": 3217,
      "郬": 3218,
      "都": 3219,
      "鄉": 3220,
      "鄧": 3221,
      "鄰": 3222,
      "酉": 3223,
      "酒": 3224,
      "里": 3225,
      "重": 3226,
      "野": 3227,
      "量": 3228,
      "金": 3229,
      "銀": 3230,
      "鋼": 3231,
      "錬": 3232,
      "録": 3233,
      "鎌": 3234,
      "鎖": 3235,
      "鎮": 3236,
      "鏈": 3237,
      "鑊": 3238,
      "钵": 3239,
      "银": 3240,
      "铺": 3241,
      "销": 3242,
      "锵": 3243,
      "長": 3244,
      "长": 3245,
      "門": 3246,
      "開": 3247,
      "間": 3248,
      "関": 3249,
      "閩": 3250,
      "閲": 3251,
      "闘": 3252,
      "门": 3253,
      "问": 3254,
      "间": 3255,
      "阔": 3256,
      "阪": 3257,
      "防": 3258,
      "阳": 3259,
      "阿": 3260,
      "陀": 3261,
      "限": 3262,
      "院": 3263,
      "除": 3264,
      "险": 3265,
      "陰": 3266,
      "陽": 3267,
      "隊": 3268,
      "随": 3269,
      "際": 3270,
      "障": 3271,
      "隠": 3272,
      "隨": 3273,
      "險": 3274,
      "隱": 3275,
      "雄": 3276,
      "雅": 3277,
      "集": 3278,
      "雑": 3279,
      "雛": 3280,
      "離": 3281,
      "難": 3282,
      "雨": 3283,
      "雪": 3284,
      "雰": 3285,
      "雲": 3286,
      "雷": 3287,
      "電": 3288,
      "霊": 3289,
      "青": 3290,
      "静": 3291,
      "非": 3292,
      "靠": 3293,
      "面": 3294,
      "革": 3295,
      "韬": 3296,
      "音": 3297,
      "韶": 3298,
      "頃": 3299,
      "項": 3300,
      "順": 3301,
      "頓": 3302,
      "領": 3303,
      "頭": 3304,
      "題": 3305,
      "页": 3306,
      "项": 3307,
      "顺": 3308,
      "须": 3309,
      "领": 3310,
      "频": 3311,
      "题": 3312,
      "额": 3313,
      "風": 3314,
      "颼": 3315,
      "风": 3316,
      "飛": 3317,
      "飞": 3318,
      "食": 3319,
      "飲": 3320,
      "飾": 3321,
      "養": 3322,
      "餐": 3323,
      "餓": 3324,
      "館": 3325,
      "饨": 3326,
      "饭": 3327,
      "饰": 3328,
      "馄": 3329,
      "馆": 3330,
      "馍": 3331,
      "首": 3332,
      "香": 3333,
      "馬": 3334,
      "駆": 3335,
      "駐": 3336,
      "驗": 3337,
      "马": 3338,
      "骸": 3339,
      "體": 3340,
      "高": 3341,
      "魂": 3342,
      "魄": 3343,
      "魔": 3344,
      "魚": 3345,
      "魯": 3346,
      "鯰": 3347,
      "鱼": 3348,
      "鲁": 3349,
      "鲜": 3350,
      "鳜": 3351,
      "鳞": 3352,
      "鴨": 3353,
      "鹅": 3354,
      "鹏": 3355,
      "麵": 3356,
      "麼": 3357,
      "黃": 3358,
      "黄": 3359,
      "黎": 3360,
      "黑": 3361,
      "黒": 3362,
      "黙": 3363,
      "點": 3364,
      "黠": 3365,
      "黨": 3366,
      "鼓": 3367,
      "鼠": 3368,
      "齢": 3369,
      "龍": 3370,
      "龙": 3371,
      "ꓕ": 3372,
      "ꔓ": 3373,
      "ꕤ": 3374,
      "Ꙩ": 3375,
      "ꜥ": 3376,
      "ꜱ": 3377,
      "꞉": 3378,
      "": 3379,
      "": 3380,
      "": 3381,
      "": 3382,
      "": 3383,
      "": 3384,
      "": 3385,
      "": 3386,
      "": 3387,
      "": 3388,
      "": 3389,
      "": 3390,
      "": 3391,
      "": 3392,
      "": 3393,
      "": 3394,
      "": 3395,
      "": 3396,
      "": 3397,
      "": 3398,
      "": 3399,
      "": 3400,
      "": 3401,
      "": 3402,
      "": 3403,
      "": 3404,
      "": 3405,
      "": 3406,
      "": 3407,
      "": 3408,
      "": 3409,
      "": 3410,
      "": 3411,
      "": 3412,
      "": 3413,
      "": 3414,
      "": 3415,
      "": 3416,
      "": 3417,
      "": 3418,
      "": 3419,
      "": 3420,
      "﴾": 3421,
      "﴿": 3422,
      "﷽": 3423,
      "︎": 3424,
      "️": 3425,
      "￾": 3426,
      "𐰃": 3427,
      "𐰆": 3428,
      "𐰇": 3429,
      "𐰍": 3430,
      "𐰔": 3431,
      "𐰖": 3432,
      "𐰞": 3433,
      "𐰣": 3434,
      "𐰰": 3435,
      "𐰴": 3436,
      "𐰺": 3437,
      "𐰼": 3438,
      "𐱃": 3439,
      "𐱅": 3440,
      "𒀫": 3441,
      "𒀭": 3442,
      "𒂗": 3443,
      "𒄀": 3444,
      "𒆠": 3445,
      "𒆦": 3446,
      "𒈗": 3447,
      "𒈾": 3448,
      "𒊨": 3449,
      "𒊮": 3450,
      "𒋛": 3451,
      "𒌓": 3452,
      "𒌦": 3453,
      "𒎏": 3454,
      "🅰": 3455,
      "🅴": 3456,
      "🅽": 3457,
      "🆕": 3458,
      "🆘": 3459,
      "🆚": 3460,
      "🇦": 3461,
      "🇧": 3462,
      "🇨": 3463,
      "🇩": 3464,
      "🇪": 3465,
      "🇫": 3466,
      "🇬": 3467,
      "🇭": 3468,
      "🇮": 3469,
      "🇯": 3470,
      "🇰": 3471,
      "🇱": 3472,
      "🇲": 3473,
      "🇳": 3474,
      "🇴": 3475,
      "🇵": 3476,
      "🇷": 3477,
      "🇸": 3478,
      "🇹": 3479,
      "🇺": 3480,
      "🇿": 3481,
      "🌄": 3482,
      "🌅": 3483,
      "🌆": 3484,
      "🌈": 3485,
      "🌉": 3486,
      "🌊": 3487,
      "🌋": 3488,
      "🌌": 3489,
      "🌍": 3490,
      "🌎": 3491,
      "🌏": 3492,
      "🌐": 3493,
      "🌑": 3494,
      "🌔": 3495,
      "🌙": 3496,
      "🌛": 3497,
      "🌜": 3498,
      "🌝": 3499,
      "🌞": 3500,
      "🌟": 3501,
      "🌠": 3502,
      "🌧": 3503,
      "🌫": 3504,
      "🌬": 3505,
      "🌭": 3506,
      "🌮": 3507,
      "🌯": 3508,
      "🌰": 3509,
      "🌱": 3510,
      "🌲": 3511,
      "🌳": 3512,
      "🌴": 3513,
      "🌶": 3514,
      "🌷": 3515,
      "🌸": 3516,
      "🌹": 3517,
      "🌺": 3518,
      "🌻": 3519,
      "🌼": 3520,
      "🌾": 3521,
      "🌿": 3522,
      "🍀": 3523,
      "🍁": 3524,
      "🍂": 3525,
      "🍃": 3526,
      "🍄": 3527,
      "🍅": 3528,
      "🍆": 3529,
      "🍊": 3530,
      "🍋": 3531,
      "🍌": 3532,
      "🍍": 3533,
      "🍎": 3534,
      "🍏": 3535,
      "🍒": 3536,
      "🍓": 3537,
      "🍔": 3538,
      "🍕": 3539,
      "🍖": 3540,
      "🍗": 3541,
      "🍚": 3542,
      "🍝": 3543,
      "🍣": 3544,
      "🍨": 3545,
      "🍩": 3546,
      "🍪": 3547,
      "🍫": 3548,
      "🍬": 3549,
      "🍭": 3550,
      "🍰": 3551,
      "🍱": 3552,
      "🍲": 3553,
      "🍳": 3554,
      "🍵": 3555,
      "🍷": 3556,
      "🍸": 3557,
      "🍺": 3558,
      "🍽": 3559,
      "🎁": 3560,
      "🎂": 3561,
      "🎃": 3562,
      "🎄": 3563,
      "🎆": 3564,
      "🎇": 3565,
      "🎈": 3566,
      "🎉": 3567,
      "🎊": 3568,
      "🎋": 3569,
      "🎓": 3570,
      "🎖": 3571,
      "🎗": 3572,
      "🎙": 3573,
      "🎞": 3574,
      "🎤": 3575,
      "🎥": 3576,
      "🎦": 3577,
      "🎨": 3578,
      "🎩": 3579,
      "🎫": 3580,
      "🎬": 3581,
      "🎭": 3582,
      "🎮": 3583,
      "🎯": 3584,
      "🎲": 3585,
      "🎵": 3586,
      "🎶": 3587,
      "🎸": 3588,
      "🎻": 3589,
      "🎼": 3590,
      "🏀": 3591,
      "🏁": 3592,
      "🏃": 3593,
      "🏄": 3594,
      "🏅": 3595,
      "🏆": 3596,
      "🏊": 3597,
      "🏋": 3598,
      "🏎": 3599,
      "🏔": 3600,
      "🏕": 3601,
      "🏖": 3602,
      "🏘": 3603,
      "🏛": 3604,
      "🏜": 3605,
      "🏝": 3606,
      "🏞": 3607,
      "🏟": 3608,
      "🏠": 3609,
      "🏡": 3610,
      "🏢": 3611,
      "🏥": 3612,
      "🏦": 3613,
      "🏪": 3614,
      "🏫": 3615,
      "🏭": 3616,
      "🏰": 3617,
      "🏳": 3618,
      "🏴": 3619,
      "🏵": 3620,
      "🏷": 3621,
      "🏹": 3622,
      "🏻": 3623,
      "🏼": 3624,
      "🏽": 3625,
      "🏾": 3626,
      "🏿": 3627,
      "🐁": 3628,
      "🐈": 3629,
      "🐋": 3630,
      "🐍": 3631,
      "🐑": 3632,
      "🐒": 3633,
      "🐕": 3634,
      "🐝": 3635,
      "🐞": 3636,
      "🐟": 3637,
      "🐢": 3638,
      "🐣": 3639,
      "🐤": 3640,
      "🐥": 3641,
      "🐪": 3642,
      "🐬": 3643,
      "🐯": 3644,
      "🐰": 3645,
      "🐳": 3646,
      "🐴": 3647,
      "🐶": 3648,
      "🐸": 3649,
      "🐹": 3650,
      "🐺": 3651,
      "🐾": 3652,
      "👀": 3653,
      "👁": 3654,
      "👆": 3655,
      "👇": 3656,
      "👈": 3657,
      "👉": 3658,
      "👊": 3659,
      "👋": 3660,
      "👌": 3661,
      "👍": 3662,
      "👎": 3663,
      "👏": 3664,
      "👐": 3665,
      "👑": 3666,
      "👕": 3667,
      "👖": 3668,
      "👗": 3669,
      "👙": 3670,
      "👚": 3671,
      "👜": 3672,
      "👠": 3673,
      "👡": 3674,
      "👣": 3675,
      "👤": 3676,
      "👥": 3677,
      "👦": 3678,
      "👧": 3679,
      "👨": 3680,
      "👩": 3681,
      "👭": 3682,
      "👮": 3683,
      "👱": 3684,
      "👴": 3685,
      "👶": 3686,
      "👷": 3687,
      "👻": 3688,
      "👼": 3689,
      "👽": 3690,
      "👾": 3691,
      "👿": 3692,
      "💀": 3693,
      "💁": 3694,
      "💃": 3695,
      "💄": 3696,
      "💅": 3697,
      "💇": 3698,
      "💉": 3699,
      "💊": 3700,
      "💋": 3701,
      "💌": 3702,
      "💍": 3703,
      "💎": 3704,
      "💏": 3705,
      "💐": 3706,
      "💑": 3707,
      "💓": 3708,
      "💕": 3709,
      "💖": 3710,
      "💗": 3711,
      "💙": 3712,
      "💚": 3713,
      "💛": 3714,
      "💜": 3715,
      "💝": 3716,
      "💞": 3717,
      "💟": 3718,
      "💠": 3719,
      "💡": 3720,
      "💢": 3721,
      "💣": 3722,
      "💤": 3723,
      "💥": 3724,
      "💦": 3725,
      "💧": 3726,
      "💨": 3727,
      "💩": 3728,
      "💪": 3729,
      "💫": 3730,
      "💬": 3731,
      "💭": 3732,
      "💮": 3733,
      "💯": 3734,
      "💰": 3735,
      "💲": 3736,
      "💳": 3737,
      "💵": 3738,
      "💶": 3739,
      "💸": 3740,
      "💹": 3741,
      "💻": 3742,
      "💼": 3743,
      "📀": 3744,
      "📁": 3745,
      "📂": 3746,
      "📄": 3747,
      "📅": 3748,
      "📆": 3749,
      "📈": 3750,
      "📉": 3751,
      "📊": 3752,
      "📌": 3753,
      "📍": 3754,
      "📎": 3755,
      "📏": 3756,
      "📐": 3757,
      "📑": 3758,
      "📒": 3759,
      "📓": 3760,
      "📕": 3761,
      "📖": 3762,
      "📗": 3763,
      "📘": 3764,
      "📙": 3765,
      "📚": 3766,
      "📜": 3767,
      "📝": 3768,
      "📞": 3769,
      "📢": 3770,
      "📣": 3771,
      "📥": 3772,
      "📦": 3773,
      "📩": 3774,
      "📬": 3775,
      "📮": 3776,
      "📰": 3777,
      "📱": 3778,
      "📲": 3779,
      "📶": 3780,
      "📸": 3781,
      "📹": 3782,
      "📺": 3783,
      "📻": 3784,
      "📽": 3785,
      "🔁": 3786,
      "🔆": 3787,
      "🔇": 3788,
      "🔈": 3789,
      "🔉": 3790,
      "🔊": 3791,
      "🔌": 3792,
      "🔍": 3793,
      "🔎": 3794,
      "🔐": 3795,
      "🔑": 3796,
      "🔒": 3797,
      "🔔": 3798,
      "🔗": 3799,
      "🔘": 3800,
      "🔙": 3801,
      "🔜": 3802,
      "🔝": 3803,
      "🔟": 3804,
      "🔥": 3805,
      "🔧": 3806,
      "🔨": 3807,
      "🔪": 3808,
      "🔮": 3809,
      "🔰": 3810,
      "🔱": 3811,
      "🔴": 3812,
      "🔵": 3813,
      "🔶": 3814,
      "🔷": 3815,
      "🔸": 3816,
      "🔹": 3817,
      "🔺": 3818,
      "🔻": 3819,
      "😀": 3820,
      "😁": 3821,
      "😂": 3822,
      "😃": 3823,
      "😄": 3824,
      "😅": 3825,
      "😆": 3826,
      "😇": 3827,
      "😈": 3828,
      "😉": 3829,
      "😊": 3830,
      "😋": 3831,
      "😌": 3832,
      "😍": 3833,
      "😎": 3834,
      "😏": 3835,
      "😐": 3836,
      "😑": 3837,
      "😒": 3838,
      "😓": 3839,
      "😔": 3840,
      "😕": 3841,
      "😖": 3842,
      "😗": 3843,
      "😘": 3844,
      "😙": 3845,
      "😚": 3846,
      "😛": 3847,
      "😜": 3848,
      "😝": 3849,
      "😞": 3850,
      "😠": 3851,
      "😡": 3852,
      "😢": 3853,
      "😣": 3854,
      "😤": 3855,
      "😥": 3856,
      "😦": 3857,
      "😧": 3858,
      "😨": 3859,
      "😩": 3860,
      "😪": 3861,
      "😫": 3862,
      "😬": 3863,
      "😭": 3864,
      "😮": 3865,
      "😯": 3866,
      "😰": 3867,
      "😱": 3868,
      "😲": 3869,
      "😳": 3870,
      "😴": 3871,
      "😵": 3872,
      "😶": 3873,
      "😷": 3874,
      "😸": 3875,
      "😻": 3876,
      "😽": 3877,
      "🙀": 3878,
      "🙁": 3879,
      "🙂": 3880,
      "🙃": 3881,
      "🙄": 3882,
      "🙅": 3883,
      "🙆": 3884,
      "🙇": 3885,
      "🙈": 3886,
      "🙉": 3887,
      "🙊": 3888,
      "🙋": 3889,
      "🙌": 3890,
      "🙍": 3891,
      "🙏": 3892,
      "🚀": 3893,
      "🚁": 3894,
      "🚂": 3895,
      "🚌": 3896,
      "🚖": 3897,
      "🚗": 3898,
      "🚘": 3899,
      "🚙": 3900,
      "🚚": 3901,
      "🚛": 3902,
      "🚢": 3903,
      "🚤": 3904,
      "🚧": 3905,
      "🚨": 3906,
      "🚩": 3907,
      "🚫": 3908,
      "🚬": 3909,
      "🚭": 3910,
      "🚲": 3911,
      "🚴": 3912,
      "🚶": 3913,
      "🚷": 3914,
      "🚽": 3915,
      "🛄": 3916,
      "􀁄": 3917,
      "􀁆": 3918,
      "􀁲": 3919,
      "􀃷": 3920,
      "􀃺": 3921,
      "􀄴": 3922,
      "􀍳": 3923,
      "􀍴": 3924,
      "􀍶": 3925,
      "􀍺": 3926,
      "ar": 3927,
      "er": 3928,
      "an": 3929,
      "in": 3930,
      "en": 3931,
      "ın": 3932,
      "il": 3933,
      "ir": 3934,
      "de": 3935,
      "al": 3936,
      "da": 3937,
      "ak": 3938,
      "lar": 3939,
      "ya": 3940,
      "ek": 3941,
      "el": 3942,
      "ma": 3943,
      "la": 3944,
      "et": 3945,
      "or": 3946,
      "un": 3947,
      "ler": 3948,
      "ve": 3949,
      "ol": 3950,
      "on": 3951,
      "ik": 3952,
      "iz": 3953,
      "bir": 3954,
      "es": 3955,
      "iy": 3956,
      "ır": 3957,
      "im": 3958,
      "em": 3959,
      "is": 3960,
      "at": 3961,
      "ur": 3962,
      "ün": 3963,
      "iş": 3964,
      "ed": 3965,
      "ay": 3966,
      "ıl": 3967,
      "as": 3968,
      "ul": 3969,
      "ık": 3970,
      "ür": 3971,
      "ta": 3972,
      "le": 3973,
      "ış": 3974,
      "ım": 3975,
      "bil": 3976,
      "sa": 3977,
      "ka": 3978,
      "aş": 3979,
      "iç": 3980,
      "it": 3981,
      "ında": 3982,
      "ız": 3983,
      "li": 3984,
      "dan": 3985,
      "ön": 3986,
      "ey": 3987,
      "di": 3988,
      "am": 3989,
      "um": 3990,
      "inde": 3991,
      "lan": 3992,
      "ok": 3993,
      "ör": 3994,
      "ığ": 3995,
      "du": 3996,
      "ha": 3997,
      "den": 3998,
      "ların": 3999,
      "üz": 4000,
      "ini": 4001,
      "yap": 4002,
      "ine": 4003,
      "bu": 4004,
      "ti": 4005,
      "ile": 4006,
      "ki": 4007,
      "sı": 4008,
      "ce": 4009,
      "ları": 4010,
      "ük": 4011,
      "mak": 4012,
      "iler": 4013,
      "için": 4014,
      "te": 4015,
      "ara": 4016,
      "ağ": 4017,
      "az": 4018,
      "esi": 4019,
      "uz": 4020,
      "yor": 4021,
      "lı": 4022,
      "st": 4023,
      "ev": 4024,
      "alar": 4025,
      "leri": 4026,
      "dır": 4027,
      "ını": 4028,
      "ver": 4029,
      "gel": 4030,
      "baş": 4031,
      "üm": 4032,
      "ra": 4033,
      "gör": 4034,
      "inin": 4035,
      "tır": 4036,
      "eler": 4037,
      "iyor": 4038,
      "onu": 4039,
      "cak": 4040,
      "öz": 4041,
      "gi": 4042,
      "ına": 4043,
      "dir": 4044,
      "ği": 4045,
      "kar": 4046,
      "lik": 4047,
      "ist": 4048,
      "ger": 4049,
      "oğ": 4050,
      "olar": 4051,
      "iye": 4052,
      "ül": 4053,
      "ken": 4054,
      "dı": 4055,
      "yan": 4056,
      "eç": 4057,
      "mek": 4058,
      "tir": 4059,
      "bul": 4060,
      "ığı": 4061,
      "oldu": 4062,
      "üş": 4063,
      "ola": 4064,
      "iniz": 4065,
      "ut": 4066,
      "olarak": 4067,
      "çık": 4068,
      "len": 4069,
      "uş": 4070,
      "bilir": 4071,
      "Bu": 4072,
      "ması": 4073,
      "ec": 4074,
      "man": 4075,
      "son": 4076,
      "ip": 4077,
      "tı": 4078,
      "lu": 4079,
      "cı": 4080,
      "ından": 4081,
      "ro": 4082,
      "çok": 4083,
      "bi": 4084,
      "değ": 4085,
      "kan": 4086,
      "lem": 4087,
      "ez": 4088,
      "gün": 4089,
      "tan": 4090,
      "kul": 4091,
      "yer": 4092,
      "olan": 4093,
      "op": 4094,
      "uy": 4095,
      "alış": 4096,
      "laş": 4097,
      "oy": 4098,
      "ca": 4099,
      "unu": 4100,
      "lık": 4101,
      "san": 4102,
      "yük": 4103,
      "ter": 4104,
      "eden": 4105,
      "ih": 4106,
      "ede": 4107,
      "mış": 4108,
      "ının": 4109,
      "yıl": 4110,
      "ah": 4111,
      "kal": 4112,
      "kullan": 4113,
      "sür": 4114,
      "tar": 4115,
      "dar": 4116,
      "ama": 4117,
      "20": 4118,
      "bel": 4119,
      "dur": 4120,
      "yar": 4121,
      "der": 4122,
      "ürk": 4123,
      "daha": 4124,
      "eş": 4125,
      "sun": 4126,
      "ilm": 4127,
      "olduğ": 4128,
      "çalış": 4129,
      "kur": 4130,
      "konu": 4131,
      "imiz": 4132,
      "cu": 4133,
      "mas": 4134,
      "om": 4135,
      "öl": 4136,
      "var": 4137,
      "çek": 4138,
      "ad": 4139,
      "ıyor": 4140,
      "ci": 4141,
      "öy": 4142,
      "..": 4143,
      "ili": 4144,
      "ası": 4145,
      "her": 4146,
      "bü": 4147,
      "lerin": 4148,
      "yen": 4149,
      "Türk": 4150,
      "geç": 4151,
      "kat": 4152,
      "alan": 4153,
      "iya": 4154,
      "me": 4155,
      "yon": 4156,
      "yaş": 4157,
      "ıs": 4158,
      "edi": 4159,
      "ot": 4160,
      "ne": 4161,
      "hal": 4162,
      "önem": 4163,
      "ab": 4164,
      "sağ": 4165,
      "su": 4166,
      "isi": 4167,
      "aman": 4168,
      "met": 4169,
      "ru": 4170,
      "gerek": 4171,
      "gibi": 4172,
      "art": 4173,
      "üzer": 4174,
      "leş": 4175,
      "if": 4176,
      "ımız": 4177,
      "eye": 4178,
      "ren": 4179,
      "gü": 4180,
      "men": 4181,
      "yön": 4182,
      "alı": 4183,
      "ark": 4184,
      "ilen": 4185,
      "se": 4186,
      "malar": 4187,
      "asında": 4188,
      "tek": 4189,
      "siz": 4190,
      "yı": 4191,
      "yla": 4192,
      "ılan": 4193,
      "aç": 4194,
      "bulun": 4195,
      "doğ": 4196,
      "ecek": 4197,
      "tak": 4198,
      "An": 4199,
      "iyle": 4200,
      "maya": 4201,
      "tur": 4202,
      "ece": 4203,
      "eğ": 4204,
      "miş": 4205,
      "zaman": 4206,
      "şek": 4207,
      "kay": 4208,
      "diğ": 4209,
      "ap": 4210,
      "ınız": 4211,
      "lü": 4212,
      "ise": 4213,
      "say": 4214,
      "iyet": 4215,
      "let": 4216,
      "sor": 4217,
      "karş": 4218,
      "düş": 4219,
      "inden": 4220,
      "tara": 4221,
      "Baş": 4222,
      "dev": 4223,
      "kadar": 4224,
      "os": 4225,
      "pro": 4226,
      "top": 4227,
      "yaz": 4228,
      "öğ": 4229,
      "belir": 4230,
      "cağ": 4231,
      "taraf": 4232,
      "uyg": 4233,
      "ada": 4234,
      "sal": 4235,
      "larını": 4236,
      "sah": 4237,
      "ade": 4238,
      "edir": 4239,
      "lama": 4240,
      "dığ": 4241,
      "gen": 4242,
      "tem": 4243,
      "mes": 4244,
      "eli": 4245,
      "lerini": 4246,
      "gö": 4247,
      "lara": 4248,
      "eh": 4249,
      "kı": 4250,
      "dığı": 4251,
      "etk": 4252,
      "uk": 4253,
      "00": 4254,
      "nin": 4255,
      "tal": 4256,
      "kap": 4257,
      "yak": 4258,
      "unun": 4259,
      "av": 4260,
      "dik": 4261,
      "tür": 4262,
      "tr": 4263,
      "ten": 4264,
      "makta": 4265,
      "Türkiye": 4266,
      "yeni": 4267,
      "sel": 4268,
      "sonra": 4269,
      "bak": 4270,
      "etim": 4271,
      "kiş": 4272,
      "siniz": 4273,
      "özel": 4274,
      "si": 4275,
      "unda": 4276,
      "ber": 4277,
      "hak": 4278,
      "lam": 4279,
      "düz": 4280,
      "iyi": 4281,
      "ser": 4282,
      "yüz": 4283,
      "alt": 4284,
      "kon": 4285,
      "larda": 4286,
      "us": 4287,
      "açık": 4288,
      "olma": 4289,
      "sek": 4290,
      "dür": 4291,
      "ster": 4292,
      "gerçek": 4293,
      "sat": 4294,
      "büyük": 4295,
      "yol": 4296,
      "göre": 4297,
      "ayr": 4298,
      "esinde": 4299,
      "ilg": 4300,
      "be": 4301,
      "Bir": 4302,
      "mer": 4303,
      "hat": 4304,
      "tedir": 4305,
      "eti": 4306,
      "başla": 4307,
      "veya": 4308,
      "mu": 4309,
      "arak": 4310,
      "arı": 4311,
      "iştir": 4312,
      "re": 4313,
      "neden": 4314,
      "orta": 4315,
      "han": 4316,
      "fa": 4317,
      "mesi": 4318,
      "böl": 4319,
      "tarafından": 4320,
      "fark": 4321,
      "oluş": 4322,
      "maktadır": 4323,
      "etti": 4324,
      "bağ": 4325,
      "ğini": 4326,
      "Başkan": 4327,
      "har": 4328,
      "durum": 4329,
      "hem": 4330,
      "kez": 4331,
      "göster": 4332,
      "zan": 4333,
      "ilk": 4334,
      "bilirsiniz": 4335,
      "karşı": 4336,
      "por": 4337,
      "erek": 4338,
      "lere": 4339,
      "sen": 4340,
      "şekil": 4341,
      "sit": 4342,
      "olduğu": 4343,
      "istem": 4344,
      "19": 4345,
      "elik": 4346,
      "seç": 4347,
      "tü": 4348,
      "ye": 4349,
      "mektedir": 4350,
      "mü": 4351,
      "acak": 4352,
      "dım": 4353,
      "larının": 4354,
      "ben": 4355,
      "insan": 4356,
      "ileri": 4357,
      "gir": 4358,
      "değer": 4359,
      "sev": 4360,
      "söy": 4361,
      "ran": 4362,
      "ildi": 4363,
      "oyun": 4364,
      "mal": 4365,
      "id": 4366,
      "mey": 4367,
      "tes": 4368,
      "olu": 4369,
      "kü": 4370,
      "arasında": 4371,
      "dü": 4372,
      "for": 4373,
      "ban": 4374,
      "par": 4375,
      "has": 4376,
      "haz": 4377,
      "eleri": 4378,
      "bin": 4379,
      "kend": 4380,
      "taş": 4381,
      "izmet": 4382,
      "değil": 4383,
      "şekilde": 4384,
      "itim": 4385,
      "kes": 4386,
      "sahip": 4387,
      "öğren": 4388,
      "etir": 4389,
      "mil": 4390,
      "tüm": 4391,
      "içer": 4392,
      "önemli": 4393,
      "ven": 4394,
      "ıla": 4395,
      "tu": 4396,
      "...": 4397,
      "ocu": 4398,
      "yal": 4399,
      "una": 4400,
      "bek": 4401,
      "ğu": 4402,
      "dün": 4403,
      "aret": 4404,
      "mo": 4405,
      "Al": 4406,
      "getir": 4407,
      "yapıl": 4408,
      "ünü": 4409,
      "ıt": 4410,
      "leştir": 4411,
      "cek": 4412,
      "ep": 4413,
      "201": 4414,
      "işlem": 4415,
      "faz": 4416,
      "ret": 4417,
      "biz": 4418,
      "ram": 4419,
      "oz": 4420,
      "yat": 4421,
      "lerde": 4422,
      "sır": 4423,
      "Ay": 4424,
      "hizmet": 4425,
      "ülk": 4426,
      "kazan": 4427,
      "tör": 4428,
      "nın": 4429,
      "liği": 4430,
      "Ar": 4431,
      "daş": 4432,
      "kor": 4433,
      "tarih": 4434,
      "olduğunu": 4435,
      "Er": 4436,
      "ula": 4437,
      "lerinin": 4438,
      "nı": 4439,
      "devam": 4440,
      "göz": 4441,
      "çe": 4442,
      "ef": 4443,
      "larına": 4444,
      "ılı": 4445,
      "mi": 4446,
      "alın": 4447,
      "lığı": 4448,
      "ımı": 4449,
      "ilgili": 4450,
      "olay": 4451,
      "şey": 4452,
      "dav": 4453,
      "işim": 4454,
      "üs": 4455,
      "af": 4456,
      "bilg": 4457,
      "ulu": 4458,
      "sız": 4459,
      "sonu": 4460,
      "res": 4461,
      "düzen": 4462,
      "Bel": 4463,
      "iyat": 4464,
      "larında": 4465,
      "lendir": 4466,
      "raf": 4467,
      "fazla": 4468,
      "ünde": 4469,
      "ic": 4470,
      "birlik": 4471,
      "muş": 4472,
      "oj": 4473,
      "üc": 4474,
      "ans": 4475,
      "tik": 4476,
      "dık": 4477,
      "daki": 4478,
      "mıştır": 4479,
      "mam": 4480,
      "iki": 4481,
      "İl": 4482,
      "ib": 4483,
      "per": 4484,
      "aya": 4485,
      "kr": 4486,
      "İn": 4487,
      "lerine": 4488,
      "likle": 4489,
      "söz": 4490,
      "ko": 4491,
      "dış": 4492,
      "abil": 4493,
      "anla": 4494,
      "dön": 4495,
      "tut": 4496,
      "stan": 4497,
      "diği": 4498,
      "ça": 4499,
      "yok": 4500,
      "içinde": 4501,
      "tığı": 4502,
      "gelen": 4503,
      "tık": 4504,
      "asıl": 4505,
      "siy": 4506,
      "mem": 4507,
      "çocu": 4508,
      "ürün": 4509,
      "zor": 4510,
      "inc": 4511,
      "Öz": 4512,
      "sağla": 4513,
      "sistem": 4514,
      "yet": 4515,
      "asyon": 4516,
      "10": 4517,
      "bas": 4518,
      "dönem": 4519,
      "meye": 4520,
      "konuş": 4521,
      "lığ": 4522,
      "vur": 4523,
      "şeh": 4524,
      "önce": 4525,
      "diğer": 4526,
      "tel": 4527,
      "anı": 4528,
      "imi": 4529,
      "birlikte": 4530,
      "ledi": 4531,
      "ediyor": 4532,
      "ıcı": 4533,
      "rak": 4534,
      "güven": 4535,
      "yapılan": 4536,
      "oloj": 4537,
      "yatır": 4538,
      "maz": 4539,
      "ulan": 4540,
      "ilerin": 4541,
      "diye": 4542,
      "hazır": 4543,
      "lerinde": 4544,
      "Gen": 4545,
      "ilik": 4546,
      "Başkanı": 4547,
      "üst": 4548,
      "farklı": 4549,
      "dem": 4550,
      "tas": 4551,
      "azı": 4552,
      "eğitim": 4553,
      "öyle": 4554,
      "ulaş": 4555,
      "olacak": 4556,
      "yın": 4557,
      "kad": 4558,
      "deki": 4559,
      "duy": 4560,
      "acağ": 4561,
      "bur": 4562,
      "aynı": 4563,
      "din": 4564,
      "lardan": 4565,
      "ayı": 4566,
      "Bak": 4567,
      "dığını": 4568,
      "Kur": 4569,
      "liğ": 4570,
      "rup": 4571,
      "kim": 4572,
      "rı": 4573,
      "saat": 4574,
      "bah": 4575,
      "işk": 4576,
      "ket": 4577,
      "aları": 4578,
      "gram": 4579,
      "fiyat": 4580,
      "ılık": 4581,
      "haf": 4582,
      "ley": 4583,
      "eri": 4584,
      "olur": 4585,
      "eder": 4586,
      "isinde": 4587,
      "olmak": 4588,
      "ifade": 4589,
      "hakk": 4590,
      "Beled": 4591,
      "doğru": 4592,
      "tekn": 4593,
      "kaç": 4594,
      "dedi": 4595,
      "eceğ": 4596,
      "atan": 4597,
      "düşün": 4598,
      "İş": 4599,
      "edilm": 4600,
      "yüksek": 4601,
      "oluştur": 4602,
      "Mü": 4603,
      "kö": 4604,
      "masını": 4605,
      "tığ": 4606,
      "üzel": 4607,
      "müş": 4608,
      "sin": 4609,
      "larla": 4610,
      "aştır": 4611,
      "ısı": 4612,
      "dünya": 4613,
      "üzerinde": 4614,
      "hur": 4615,
      "çocuk": 4616,
      "yatırım": 4617,
      "hiç": 4618,
      "sunda": 4619,
      "En": 4620,
      "ard": 4621,
      "maları": 4622,
      "emiz": 4623,
      "nak": 4624,
      "can": 4625,
      "dest": 4626,
      "arka": 4627,
      "para": 4628,
      "Ak": 4629,
      "üy": 4630,
      "masına": 4631,
      "sık": 4632,
      "enin": 4633,
      "uzun": 4634,
      "ika": 4635,
      "net": 4636,
      "sade": 4637,
      "nasıl": 4638,
      "karar": 4639,
      "larımız": 4640,
      "ni": 4641,
      "yardım": 4642,
      "değiş": 4643,
      "destek": 4644,
      "ide": 4645,
      "bit": 4646,
      "dak": 4647,
      "hes": 4648,
      "çıkar": 4649,
      "ıp": 4650,
      "inci": 4651,
      "va": 4652,
      "manın": 4653,
      "olması": 4654,
      "ilir": 4655,
      "belirt": 4656,
      "dikkat": 4657,
      "stanbul": 4658,
      "bulunan": 4659,
      "görev": 4660,
      "ındaki": 4661,
      "alık": 4662,
      "gerçekleştir": 4663,
      "eyi": 4664,
      "esine": 4665,
      "AB": 4666,
      "eket": 4667,
      "olduk": 4668,
      "İstanbul": 4669,
      "genel": 4670,
      "sam": 4671,
      "Av": 4672,
      "luk": 4673,
      "hız": 4674,
      "ilişk": 4675,
      "tün": 4676,
      "sil": 4677,
      "oğlu": 4678,
      "sadece": 4679,
      "sav": 4680,
      "hayat": 4681,
      "ge": 4682,
      "güç": 4683,
      "başkan": 4684,
      "görün": 4685,
      "kendi": 4686,
      "nun": 4687,
      "emek": 4688,
      "ğü": 4689,
      "del": 4690,
      "osyal": 4691,
      "tam": 4692,
      "lo": 4693,
      "şir": 4694,
      "lük": 4695,
      "sak": 4696,
      "Eğ": 4697,
      "İs": 4698,
      "proj": 4699,
      "Mer": 4700,
      "malı": 4701,
      "çev": 4702,
      "uygun": 4703,
      "eşit": 4704,
      "üç": 4705,
      "det": 4706,
      "ortaya": 4707,
      "biri": 4708,
      "mut": 4709,
      "lanan": 4710,
      "lerden": 4711,
      "güzel": 4712,
      "üne": 4713,
      "dil": 4714,
      "pol": 4715,
      "umhur": 4716,
      "gu": 4717,
      "mı": 4718,
      "ac": 4719,
      "fer": 4720,
      "mez": 4721,
      "spor": 4722,
      "hangi": 4723,
      "uç": 4724,
      "15": 4725,
      "etmek": 4726,
      "katıl": 4727,
      "ağı": 4728,
      "tiya": 4729,
      "sorun": 4730,
      "eb": 4731,
      "haber": 4732,
      "abilir": 4733,
      "Her": 4734,
      "ciler": 4735,
      "na": 4736,
      "gı": 4737,
      "siyon": 4738,
      "Or": 4739,
      "uygula": 4740,
      "lak": 4741,
      "bun": 4742,
      "gan": 4743,
      "versit": 4744,
      "Pro": 4745,
      "inizi": 4746,
      "min": 4747,
      "yorum": 4748,
      "lerinden": 4749,
      "sın": 4750,
      "önc": 4751,
      "üzere": 4752,
      "eme": 4753,
      "ızı": 4754,
      "meler": 4755,
      "plan": 4756,
      "mayı": 4757,
      "ihtiya": 4758,
      "çöz": 4759,
      "van": 4760,
      "yüzde": 4761,
      "duğu": 4762,
      "ümüz": 4763,
      "şehir": 4764,
      "lat": 4765,
      "bet": 4766,
      "bır": 4767,
      "bazı": 4768,
      "fir": 4769,
      "fak": 4770,
      "kır": 4771,
      "merkez": 4772,
      "pay": 4773,
      "hakkında": 4774,
      "kolay": 4775,
      "larından": 4776,
      "ku": 4777,
      "piya": 4778,
      "Mil": 4779,
      "kurul": 4780,
      "bo": 4781,
      "açıkla": 4782,
      "hareket": 4783,
      "anlam": 4784,
      "yür": 4785,
      "esini": 4786,
      "Cumhur": 4787,
      "şu": 4788,
      "edilen": 4789,
      "to": 4790,
      "lenen": 4791,
      "nok": 4792,
      "Genel": 4793,
      "onom": 4794,
      "pan": 4795,
      "his": 4796,
      "lerle": 4797,
      "üzerine": 4798,
      "ardından": 4799,
      "eyen": 4800,
      "rat": 4801,
      "inan": 4802,
      "Bur": 4803,
      "ri": 4804,
      "gön": 4805,
      "bol": 4806,
      "geçir": 4807,
      "hay": 4808,
      "araç": 4809,
      "git": 4810,
      "Ancak": 4811,
      "mad": 4812,
      "ex": 4813,
      "iyoruz": 4814,
      "program": 4815,
      "arası": 4816,
      "tat": 4817,
      "dola": 4818,
      "yılında": 4819,
      "görüş": 4820,
      "Bü": 4821,
      "yaklaş": 4822,
      "geliş": 4823,
      "med": 4824,
      "Kar": 4825,
      "tasar": 4826,
      "lum": 4827,
      "ba": 4828,
      "rek": 4829,
      "bile": 4830,
      "bölüm": 4831,
      "bırak": 4832,
      "ancak": 4833,
      "izi": 4834,
      "kullanıl": 4835,
      "bar": 4836,
      "Gün": 4837,
      "birçok": 4838,
      "lerimiz": 4839,
      "sağlık": 4840,
      "oyn": 4841,
      "mev": 4842,
      "200": 4843,
      "Müdür": 4844,
      "ici": 4845,
      "AK": 4846,
      "tamam": 4847,
      "do": 4848,
      "ebil": 4849,
      "lantı": 4850,
      "tah": 4851,
      "incel": 4852,
      "ekonom": 4853,
      "içerisinde": 4854,
      "eni": 4855,
      "görül": 4856,
      "edef": 4857,
      "değerlendir": 4858,
      "yaşan": 4859,
      "araştır": 4860,
      "üt": 4861,
      "atı": 4862,
      "gil": 4863,
      "esinin": 4864,
      "maç": 4865,
      "şirket": 4866,
      "iğ": 4867,
      "tic": 4868,
      "lek": 4869,
      "12": 4870,
      "kıs": 4871,
      "abilirsiniz": 4872,
      "of": 4873,
      "leme": 4874,
      "oran": 4875,
      "ener": 4876,
      "pek": 4877,
      "terc": 4878,
      "kişi": 4879,
      "kil": 4880,
      "miştir": 4881,
      "For": 4882,
      "30": 4883,
      "çalışmalar": 4884,
      "yağ": 4885,
      "sik": 4886,
      "kapsam": 4887,
      "trol": 4888,
      "azar": 4889,
      "vatan": 4890,
      "gaz": 4891,
      "iyorum": 4892,
      "bölg": 4893,
      "yaşam": 4894,
      "siya": 4895,
      "milyon": 4896,
      "bes": 4897,
      "unuz": 4898,
      "kara": 4899,
      "çeşit": 4900,
      "ize": 4901,
      "kadın": 4902,
      "rar": 4903,
      "elde": 4904,
      "ayan": 4905,
      "sonuç": 4906,
      "ültür": 4907,
      "yakın": 4908,
      "ayrı": 4909,
      "konusunda": 4910,
      "lim": 4911,
      "TL": 4912,
      "dağ": 4913,
      "başka": 4914,
      "geliştir": 4915,
      "Son": 4916,
      "çi": 4917,
      "üyor": 4918,
      "ana": 4919,
      "sanız": 4920,
      "tep": 4921,
      "başar": 4922,
      "Ben": 4923,
      "sosyal": 4924,
      "kurum": 4925,
      "hedef": 4926,
      "ilmesi": 4927,
      "aber": 4928,
      "suz": 4929,
      "çalışma": 4930,
      "50": 4931,
      "yapan": 4932,
      "kom": 4933,
      "ebilir": 4934,
      "gin": 4935,
      "bor": 4936,
      "bilgi": 4937,
      "isini": 4938,
      "ılacak": 4939,
      "ünkü": 4940,
      "ılması": 4941,
      "Bakan": 4942,
      "nde": 4943,
      "fır": 4944,
      "ABD": 4945,
      "tercih": 4946,
      "temel": 4947,
      "ğimiz": 4948,
      "sebe": 4949,
      "lis": 4950,
      "istan": 4951,
      "ses": 4952,
      "sını": 4953,
      "yerine": 4954,
      "cü": 4955,
      "tif": 4956,
      "yaptığı": 4957,
      "paylaş": 4958,
      "uyor": 4959,
      "oğun": 4960,
      "Dün": 4961,
      "üp": 4962,
      "mik": 4963,
      "Da": 4964,
      "za": 4965,
      "kısa": 4966,
      "ele": 4967,
      "söyledi": 4968,
      "yönetim": 4969,
      "kabul": 4970,
      "Ayrı": 4971,
      "tap": 4972,
      "Kon": 4973,
      "dah": 4974,
      "Par": 4975,
      "yayın": 4976,
      "sektör": 4977,
      "end": 4978,
      "leyen": 4979,
      "kün": 4980,
      "Tek": 4981,
      "elerin": 4982,
      "dok": 4983,
      "olabilir": 4984,
      "rahat": 4985,
      "bugün": 4986,
      "kür": 4987,
      "okul": 4988,
      "kontrol": 4989,
      "bilin": 4990,
      "Ayrıca": 4991,
      "manız": 4992,
      "duğ": 4993,
      "tin": 4994,
      "Avrup": 4995,
      "dönüş": 4996,
      "umuz": 4997,
      "gelir": 4998,
      "arkadaş": 4999,
      "devlet": 5000,
      "bütün": 5001,
      "nek": 5002,
      "anın": 5003,
      "urt": 5004,
      "yapı": 5005,
      "vatandaş": 5006,
      "aj": 5007,
      "takım": 5008,
      "Ko": 5009,
      "film": 5010,
      "Büyük": 5011,
      "zamanda": 5012,
      "laştır": 5013,
      "Biz": 5014,
      "sonr": 5015,
      "ince": 5016,
      "uma": 5017,
      "kav": 5018,
      "telef": 5019,
      "yacak": 5020,
      "kol": 5021,
      "gönder": 5022,
      "lemek": 5023,
      "ziy": 5024,
      "çalışan": 5025,
      "Yıl": 5026,
      "nedeniyle": 5027,
      "zer": 5028,
      "yöntem": 5029,
      "bağlı": 5030,
      "kaynak": 5031,
      "zar": 5032,
      "ıldı": 5033,
      "18": 5034,
      "San": 5035,
      "ho": 5036,
      "madan": 5037,
      "ilç": 5038,
      "ternet": 5039,
      "model": 5040,
      "diğini": 5041,
      "pr": 5042,
      "oldukça": 5043,
      "isine": 5044,
      "kalit": 5045,
      "taşı": 5046,
      "lah": 5047,
      "ibi": 5048,
      "tük": 5049,
      "kesin": 5050,
      "tor": 5051,
      "veren": 5052,
      "isim": 5053,
      "üzerinden": 5054,
      "ücret": 5055,
      "seçim": 5056,
      "Dev": 5057,
      "co": 5058,
      "ali": 5059,
      "umlu": 5060,
      "ağır": 5061,
      "mar": 5062,
      "ris": 5063,
      "AR": 5064,
      "eceği": 5065,
      "toplum": 5066,
      "Bunun": 5067,
      "düğ": 5068,
      "og": 5069,
      "kayb": 5070,
      "ıda": 5071,
      "Avrupa": 5072,
      "yonu": 5073,
      "edil": 5074,
      "başvur": 5075,
      "istedi": 5076,
      "iyesi": 5077,
      "AN": 5078,
      "dal": 5079,
      "Özel": 5080,
      "yi": 5081,
      "müca": 5082,
      "Mah": 5083,
      "soru": 5084,
      "geçen": 5085,
      "müşter": 5086,
      "ğiniz": 5087,
      "landır": 5088,
      "etkin": 5089,
      "ümkün": 5090,
      "ig": 5091,
      "Yar": 5092,
      "hep": 5093,
      "As": 5094,
      "altında": 5095,
      "yüksel": 5096,
      "ekip": 5097,
      "böyle": 5098,
      "onun": 5099,
      "hafta": 5100,
      "oğraf": 5101,
      "ünün": 5102,
      "elim": 5103,
      "dolayı": 5104,
      "yönelik": 5105,
      "hale": 5106,
      "ök": 5107,
      "küç": 5108,
      ".\"": 5109,
      "ziyaret": 5110,
      "masının": 5111,
      "des": 5112,
      "uğ": 5113,
      "özellik": 5114,
      "süre": 5115,
      "üretim": 5116,
      "büy": 5117,
      "Belediye": 5118,
      "niversit": 5119,
      "gın": 5120,
      "Has": 5121,
      "mümkün": 5122,
      "Kan": 5123,
      "vardır": 5124,
      "satış": 5125,
      "itib": 5126,
      "sunuz": 5127,
      "ayar": 5128,
      "koy": 5129,
      "indeki": 5130,
      "çı": 5131,
      "şa": 5132,
      "Doğ": 5133,
      "rağ": 5134,
      "teknoloj": 5135,
      "gereken": 5136,
      "indir": 5137,
      "he": 5138,
      "doğan": 5139,
      "yum": 5140,
      "sürec": 5141,
      "gar": 5142,
      "ner": 5143,
      "günü": 5144,
      "Üniversit": 5145,
      "kaldır": 5146,
      "enek": 5147,
      "aliyet": 5148,
      "uluk": 5149,
      "geri": 5150,
      "yapmak": 5151,
      "Hal": 5152,
      "etkil": 5153,
      "hav": 5154,
      "aların": 5155,
      "Şu": 5156,
      "edik": 5157,
      "fes": 5158,
      "100": 5159,
      "tab": 5160,
      "sınır": 5161,
      "yay": 5162,
      "eg": 5163,
      "üret": 5164,
      "ing": 5165,
      "ham": 5166,
      "teş": 5167,
      "üküm": 5168,
      "alım": 5169,
      "boy": 5170,
      "ER": 5171,
      "hastal": 5172,
      "izin": 5173,
      "anlaş": 5174,
      "aray": 5175,
      "anda": 5176,
      "geldi": 5177,
      "mir": 5178,
      "elek": 5179,
      "şam": 5180,
      "tedav": 5181,
      "hesap": 5182,
      "ılır": 5183,
      "ker": 5184,
      "Ev": 5185,
      "las": 5186,
      "yarat": 5187,
      "gider": 5188,
      "genç": 5189,
      "uyu": 5190,
      "kir": 5191,
      "rol": 5192,
      "Merkez": 5193,
      "HP": 5194,
      "isinin": 5195,
      "ilere": 5196,
      "Bil": 5197,
      "cel": 5198,
      "adı": 5199,
      "erli": 5200,
      "larak": 5201,
      "konusu": 5202,
      "uygulan": 5203,
      "özellikle": 5204,
      "dolar": 5205,
      "çözüm": 5206,
      "Der": 5207,
      "od": 5208,
      "engel": 5209,
      "sanat": 5210,
      "tim": 5211,
      "Ama": 5212,
      "set": 5213,
      "ıyoruz": 5214,
      "Yap": 5215,
      "şim": 5216,
      "sına": 5217,
      "halk": 5218,
      "artık": 5219,
      "ilecek": 5220,
      "Ser": 5221,
      "işlet": 5222,
      "amacı": 5223,
      "yu": 5224,
      "dana": 5225,
      "21": 5226,
      "takip": 5227,
      "meyi": 5228,
      "undan": 5229,
      "öde": 5230,
      "sıra": 5231,
      "küçük": 5232,
      "ettiği": 5233,
      "Yön": 5234,
      "cağı": 5235,
      "İz": 5236,
      "ılığı": 5237,
      "lıyor": 5238,
      "faaliyet": 5239,
      "yardımcı": 5240,
      "retmen": 5241,
      "değişik": 5242,
      "bat": 5243,
      "anal": 5244,
      "edildi": 5245,
      "Ön": 5246,
      "ayet": 5247,
      "11": 5248,
      "diy": 5249,
      "Top": 5250,
      "itik": 5251,
      "ayd": 5252,
      "size": 5253,
      "Yeni": 5254,
      "form": 5255,
      "ilmiş": 5256,
      "gerekir": 5257,
      "Eğitim": 5258,
      "bunun": 5259,
      "Dr": 5260,
      "),": 5261,
      "meden": 5262,
      "unuyor": 5263,
      "ji": 5264,
      "kas": 5265,
      "itibar": 5266,
      "lüğü": 5267,
      "ait": 5268,
      "ğin": 5269,
      "yine": 5270,
      "kut": 5271,
      "bunu": 5272,
      "oto": 5273,
      "ihtiyaç": 5274,
      "medi": 5275,
      "cut": 5276,
      "kültür": 5277,
      "ilet": 5278,
      "muştur": 5279,
      "temiz": 5280,
      "telefon": 5281,
      "yanın": 5282,
      "müz": 5283,
      "po": 5284,
      "hızlı": 5285,
      "cev": 5286,
      "ent": 5287,
      "herhangi": 5288,
      "amaç": 5289,
      "boyun": 5290,
      "Dünya": 5291,
      "iddi": 5292,
      "up": 5293,
      "nda": 5294,
      "com": 5295,
      "ılmış": 5296,
      "isyon": 5297,
      "Rus": 5298,
      "uzak": 5299,
      "ısından": 5300,
      "bildir": 5301,
      "olup": 5302,
      "Forex": 5303,
      "açıklama": 5304,
      "çıkan": 5305,
      "14": 5306,
      "imkan": 5307,
      "tav": 5308,
      "emin": 5309,
      "larıyla": 5310,
      "gerekti": 5311,
      "yeniden": 5312,
      "eski": 5313,
      "hemen": 5314,
      "vek": 5315,
      "başladı": 5316,
      "Ankara": 5317,
      "duk": 5318,
      "landı": 5319,
      "Daha": 5320,
      "16": 5321,
      "almak": 5322,
      "sürdür": 5323,
      "yanı": 5324,
      "bilecek": 5325,
      "çeşitli": 5326,
      "hiçbir": 5327,
      "dele": 5328,
      "renk": 5329,
      "rağmen": 5330,
      "Gaz": 5331,
      "ıntı": 5332,
      "beraber": 5333,
      "usu": 5334,
      "oyuncu": 5335,
      "madde": 5336,
      "ırken": 5337,
      "pit": 5338,
      "24": 5339,
      "kapsamında": 5340,
      "eniz": 5341,
      "ail": 5342,
      "esel": 5343,
      "br": 5344,
      "gerçekleş": 5345,
      "aldı": 5346,
      "kem": 5347,
      "öner": 5348,
      "Mu": 5349,
      "Ara": 5350,
      "ışı": 5351,
      "dim": 5352,
      "kam": 5353,
      "asına": 5354,
      "deniz": 5355,
      "ortak": 5356,
      "ani": 5357,
      "25": 5358,
      "yoğun": 5359,
      "hi": 5360,
      "ira": 5361,
      "savaş": 5362,
      "dahil": 5363,
      "konuştu": 5364,
      "değiştir": 5365,
      "sayesinde": 5366,
      "El": 5367,
      "cam": 5368,
      "saldır": 5369,
      "umu": 5370,
      "Ne": 5371,
      "cil": 5372,
      "ilerini": 5373,
      "geler": 5374,
      "ov": 5375,
      "Erdoğan": 5376,
      "Mar": 5377,
      "deney": 5378,
      "tekrar": 5379,
      "İngil": 5380,
      "pu": 5381,
      "mel": 5382,
      "şekl": 5383,
      "altına": 5384,
      "serv": 5385,
      "koş": 5386,
      "bal": 5387,
      "internet": 5388,
      "teknik": 5389,
      "ticaret": 5390,
      "Sağ": 5391,
      "mesini": 5392,
      "ilişkin": 5393,
      "mağ": 5394,
      "adım": 5395,
      "leriyle": 5396,
      "başkanı": 5397,
      "otoğraf": 5398,
      "imizin": 5399,
      "kullanıcı": 5400,
      "mevcut": 5401,
      "ölç": 5402,
      "17": 5403,
      "beklen": 5404,
      "uygu": 5405,
      "köy": 5406,
      "Kay": 5407,
      "ekli": 5408,
      "lararası": 5409,
      "çevr": 5410,
      "kız": 5411,
      "Devlet": 5412,
      "oluyor": 5413,
      "yaklaşık": 5414,
      "Tur": 5415,
      "ton": 5416,
      "suç": 5417,
      "Es": 5418,
      "seviy": 5419,
      "tiv": 5420,
      "gerekli": 5421,
      "Kara": 5422,
      "Tem": 5423,
      "uştur": 5424,
      "taj": 5425,
      "Böl": 5426,
      "olsun": 5427,
      "erk": 5428,
      "etic": 5429,
      "örgü": 5430,
      "Ban": 5431,
      "sez": 5432,
      "boyunca": 5433,
      "çiz": 5434,
      "dair": 5435,
      "Os": 5436,
      "olmayan": 5437,
      "diz": 5438,
      "nedenle": 5439,
      "retim": 5440,
      "dışında": 5441,
      "tespit": 5442,
      "Fak": 5443,
      "anlat": 5444,
      "hüküm": 5445,
      "''": 5446,
      "ikinci": 5447,
      "ısında": 5448,
      "Belediyesi": 5449,
      "13": 5450,
      "pazar": 5451,
      "toplantı": 5452,
      "sınız": 5453,
      "fik": 5454,
      "pat": 5455,
      "nit": 5456,
      "arac": 5457,
      "organ": 5458,
      "ift": 5459,
      "uzman": 5460,
      "İlk": 5461,
      "dum": 5462,
      "ister": 5463,
      "bey": 5464,
      "ederek": 5465,
      "bab": 5466,
      "zarar": 5467,
      "poz": 5468,
      "dül": 5469,
      "Dem": 5470,
      "açısından": 5471,
      "vak": 5472,
      "adet": 5473,
      "biraz": 5474,
      "oda": 5475,
      "Tar": 5476,
      "oper": 5477,
      "eceğini": 5478,
      "ona": 5479,
      "haya": 5480,
      "işi": 5481,
      "On": 5482,
      "grup": 5483,
      "ant": 5484,
      "ekonomik": 5485,
      "cağını": 5486,
      "gelecek": 5487,
      "durumda": 5488,
      "piyas": 5489,
      "burada": 5490,
      "başarı": 5491,
      "vi": 5492,
      "lin": 5493,
      "süreç": 5494,
      "talep": 5495,
      "Sur": 5496,
      "elere": 5497,
      "alat": 5498,
      "lüğ": 5499,
      "malıdır": 5500,
      "hava": 5501,
      "kitap": 5502,
      "utbol": 5503,
      "dayan": 5504,
      "mıştı": 5505,
      "altı": 5506,
      "yarar": 5507,
      "isteyen": 5508,
      "toplam": 5509,
      "kent": 5510,
      "iyeti": 5511,
      "satın": 5512,
      "mesine": 5513,
      "risk": 5514,
      "Üniversitesi": 5515,
      "benim": 5516,
      "ıyorum": 5517,
      "Eğer": 5518,
      "artır": 5519,
      "değildir": 5520,
      "teh": 5521,
      "layan": 5522,
      "edecek": 5523,
      "elerde": 5524,
      "olacaktır": 5525,
      "miktar": 5526,
      "etkili": 5527,
      "Gel": 5528,
      "lardır": 5529,
      "cihaz": 5530,
      "bakım": 5531,
      "izm": 5532,
      "yo": 5533,
      "İç": 5534,
      "matik": 5535,
      "Kal": 5536,
      "öğretmen": 5537,
      "alarda": 5538,
      "Çünkü": 5539,
      "öğrenciler": 5540,
      "elektr": 5541,
      "Meh": 5542,
      "bizim": 5543,
      "Amer": 5544,
      "öğrenc": 5545,
      "ınızı": 5546,
      "millet": 5547,
      "biliyor": 5548,
      "çar": 5549,
      "verdi": 5550,
      "inize": 5551,
      "birbir": 5552,
      "geçti": 5553,
      "yaptı": 5554,
      "yurt": 5555,
      "karşılaş": 5556,
      "medya": 5557,
      "ras": 5558,
      "boz": 5559,
      "lında": 5560,
      "ladı": 5561,
      "ucu": 5562,
      "mah": 5563,
      "sınıf": 5564,
      "düşük": 5565,
      "Uz": 5566,
      "aday": 5567,
      "edin": 5568,
      "Kı": 5569,
      "dam": 5570,
      "imize": 5571,
      "Parti": 5572,
      "çağ": 5573,
      "ünden": 5574,
      "meleri": 5575,
      "alet": 5576,
      "ayın": 5577,
      "fotoğraf": 5578,
      "ılığ": 5579,
      "ört": 5580,
      "katkı": 5581,
      "gür": 5582,
      "fi": 5583,
      "imizi": 5584,
      "kın": 5585,
      "ilerine": 5586,
      "İk": 5587,
      "seniz": 5588,
      "masında": 5589,
      "asını": 5590,
      "Kor": 5591,
      "parç": 5592,
      "Osman": 5593,
      "yık": 5594,
      "bakan": 5595,
      "uyla": 5596,
      "larınız": 5597,
      "kamu": 5598,
      "omo": 5599,
      "Haz": 5600,
      "örnek": 5601,
      "ortam": 5602,
      "Öğ": 5603,
      "yarak": 5604,
      "Kul": 5605,
      "belirlen": 5606,
      "uc": 5607,
      "derece": 5608,
      "so": 5609,
      "sizin": 5610,
      "gal": 5611,
      "sıyla": 5612,
      "sahibi": 5613,
      "part": 5614,
      "mada": 5615,
      "Em": 5616,
      "oku": 5617,
      "menin": 5618,
      "sey": 5619,
      "olun": 5620,
      "Kom": 5621,
      "rü": 5622,
      "tart": 5623,
      "sim": 5624,
      "kullanım": 5625,
      "cid": 5626,
      "meli": 5627,
      "şart": 5628,
      "doğal": 5629,
      "Ulu": 5630,
      "Ah": 5631,
      "Ör": 5632,
      "Hak": 5633,
      "yani": 5634,
      "kuruluş": 5635,
      "meyen": 5636,
      "çoğ": 5637,
      "sebep": 5638,
      "olsa": 5639,
      "yapar": 5640,
      "adına": 5641,
      "alarında": 5642,
      "hesab": 5643,
      "nokt": 5644,
      "karış": 5645,
      "gerekiyor": 5646,
      "ders": 5647,
      "cin": 5648,
      "nız": 5649,
      "gez": 5650,
      "kah": 5651,
      "cılık": 5652,
      "sağlan": 5653,
      "hey": 5654,
      "Mus": 5655,
      "otur": 5656,
      "zem": 5657,
      "istik": 5658,
      "ort": 5659,
      "halinde": 5660,
      "Alman": 5661,
      "teşek": 5662,
      "başarılı": 5663,
      "ceğ": 5664,
      "aktar": 5665,
      "AL": 5666,
      "dek": 5667,
      "kişinin": 5668,
      "detay": 5669,
      "acı": 5670,
      "DE": 5671,
      "Mehmet": 5672,
      "mücadele": 5673,
      "mayan": 5674,
      "temsil": 5675,
      "biç": 5676,
      "Ali": 5677,
      "Ve": 5678,
      "rafik": 5679,
      "yemek": 5680,
      "piyasa": 5681,
      "yapılacak": 5682,
      "gazet": 5683,
      "irüs": 5684,
      "ehir": 5685,
      "kötü": 5686,
      "şi": 5687,
      "mis": 5688,
      "şeklinde": 5689,
      "yanında": 5690,
      "tarihi": 5691,
      "ch": 5692,
      "geniş": 5693,
      "tip": 5694,
      "luğ": 5695,
      "don": 5696,
      "sar": 5697,
      "coin": 5698,
      "tasarım": 5699,
      "Bit": 5700,
      "tartış": 5701,
      "saç": 5702,
      "sur": 5703,
      "ej": 5704,
      "boş": 5705,
      "22": 5706,
      "kullanılan": 5707,
      "alama": 5708,
      "tım": 5709,
      "ayak": 5710,
      "aten": 5711,
      "atif": 5712,
      "diyor": 5713,
      "bilim": 5714,
      "teşekkür": 5715,
      "arasındaki": 5716,
      "000": 5717,
      "CHP": 5718,
      "40": 5719,
      "esn": 5720,
      "lül": 5721,
      "uygulama": 5722,
      "Kas": 5723,
      "Su": 5724,
      "lamak": 5725,
      "Geç": 5726,
      "bulundu": 5727,
      "Çalış": 5728,
      "sırasında": 5729,
      "sıcak": 5730,
      "çıktı": 5731,
      "sü": 5732,
      "meniz": 5733,
      "meydana": 5734,
      "düzey": 5735,
      "Tra": 5736,
      "erken": 5737,
      "alıyor": 5738,
      "ET": 5739,
      "içi": 5740,
      "alma": 5741,
      "tay": 5742,
      "hastan": 5743,
      "ılım": 5744,
      "ann": 5745,
      "luluk": 5746,
      "AT": 5747,
      "istiyor": 5748,
      "plat": 5749,
      "verilen": 5750,
      "ormal": 5751,
      "Ey": 5752,
      "araya": 5753,
      "dö": 5754,
      "güçlü": 5755,
      "yönet": 5756,
      "ari": 5757,
      "ekran": 5758,
      "leye": 5759,
      "Hav": 5760,
      "Fran": 5761,
      "terör": 5762,
      "olmaya": 5763,
      "kalan": 5764,
      "strat": 5765,
      "Bun": 5766,
      "ülen": 5767,
      "iletişim": 5768,
      "yas": 5769,
      "niyet": 5770,
      "Ro": 5771,
      "otor": 5772,
      "fırsat": 5773,
      "Tüm": 5774,
      "tanım": 5775,
      "İzmir": 5776,
      "dük": 5777,
      "Kurulu": 5778,
      "davran": 5779,
      "seçenek": 5780,
      "kayıt": 5781,
      "baz": 5782,
      "isayar": 5783,
      "adam": 5784,
      "aldığı": 5785,
      "lilik": 5786,
      "sürekli": 5787,
      "bilgiler": 5788,
      "tama": 5789,
      "vet": 5790,
      "forman": 5791,
      "iliği": 5792,
      "elerinin": 5793,
      "60": 5794,
      "birkaç": 5795,
      "işe": 5796,
      "sistemi": 5797,
      "Milli": 5798,
      "ecektir": 5799,
      "yaşad": 5800,
      "all": 5801,
      "eser": 5802,
      "devr": 5803,
      "etik": 5804,
      "muz": 5805,
      "test": 5806,
      "Millet": 5807,
      "ital": 5808,
      "konuda": 5809,
      "dığında": 5810,
      "Oy": 5811,
      "açıl": 5812,
      "sine": 5813,
      "inşa": 5814,
      "eceğiniz": 5815,
      "etin": 5816,
      "sözleş": 5817,
      "zen": 5818,
      "vil": 5819,
      "sonuc": 5820,
      "geçmiş": 5821,
      "politik": 5822,
      "hatır": 5823,
      "Çocu": 5824,
      "tığını": 5825,
      "yarış": 5826,
      "Kr": 5827,
      "Kad": 5828,
      "tanı": 5829,
      "Hat": 5830,
      "güvenlik": 5831,
      "dile": 5832,
      "asının": 5833,
      "eği": 5834,
      "üler": 5835,
      "geliyor": 5836,
      "birey": 5837,
      "ıyla": 5838,
      "elikle": 5839,
      "23": 5840,
      "ilmiştir": 5841,
      "iyon": 5842,
      "sonucu": 5843,
      "günde": 5844,
      "ediye": 5845,
      "Bakanlığı": 5846,
      "dığınız": 5847,
      "nokta": 5848,
      "aşağı": 5849,
      "ulus": 5850,
      "Sağlık": 5851,
      "Özellikle": 5852,
      "esinden": 5853,
      "talya": 5854,
      "dakika": 5855,
      "amacıyla": 5856,
      "analiz": 5857,
      "artış": 5858,
      "Sav": 5859,
      "sem": 5860,
      "Tekn": 5861,
      "viz": 5862,
      "alınan": 5863,
      "ayrıca": 5864,
      "düşünü": 5865,
      "İnsan": 5866,
      "rapor": 5867,
      "sonrası": 5868,
      "gula": 5869,
      "koşul": 5870,
      "dığımız": 5871,
      "günlük": 5872,
      "imde": 5873,
      "muh": 5874,
      "polis": 5875,
      "eki": 5876,
      "yazı": 5877,
      "çift": 5878,
      "dıkları": 5879,
      "belli": 5880,
      ").": 5881,
      "cılar": 5882,
      "cer": 5883,
      "mat": 5884,
      "ite": 5885,
      "ülke": 5886,
      "Büyükşehir": 5887,
      "kapat": 5888,
      "Kür": 5889,
      "ortal": 5890,
      "rul": 5891,
      "haline": 5892,
      "ılabilir": 5893,
      "kab": 5894,
      "ciddi": 5895,
      "türlü": 5896,
      "elerini": 5897,
      "başlat": 5898,
      "üle": 5899,
      "mekte": 5900,
      "isten": 5901,
      "bay": 5902,
      "zorunda": 5903,
      "işleri": 5904,
      "miyor": 5905,
      "Rusya": 5906,
      "üni": 5907,
      "performan": 5908,
      "bz": 5909,
      "tarihinde": 5910,
      "unut": 5911,
      "beğ": 5912,
      "gru": 5913,
      "ımıza": 5914,
      "fayd": 5915,
      "isel": 5916,
      "huk": 5917,
      "futbol": 5918,
      "asyonu": 5919,
      "lif": 5920,
      "üniversit": 5921,
      "öğretim": 5922,
      "yaban": 5923,
      "lider": 5924,
      "laya": 5925,
      "milyar": 5926,
      "yalnız": 5927,
      "ebilirsiniz": 5928,
      "başlayan": 5929,
      "liyor": 5930,
      "avan": 5931,
      "Bugün": 5932,
      "bulunduğu": 5933,
      "ilebilir": 5934,
      "anlar": 5935,
      "dol": 5936,
      "sonunda": 5937,
      "oluşan": 5938,
      "cısı": 5939,
      "Musta": 5940,
      "evi": 5941,
      "kişiler": 5942,
      "bula": 5943,
      "vide": 5944,
      "Müdürlüğü": 5945,
      "num": 5946,
      "ayır": 5947,
      "dönemde": 5948,
      "bize": 5949,
      "akıl": 5950,
      "düğü": 5951,
      "Anad": 5952,
      "aşır": 5953,
      "mamız": 5954,
      "erkek": 5955,
      "başvuru": 5956,
      "ilerinin": 5957,
      "yıllık": 5958,
      "otel": 5959,
      "Af": 5960,
      "emizde": 5961,
      "person": 5962,
      "çer": 5963,
      "Gör": 5964,
      "fon": 5965,
      "tamamen": 5966,
      "hastalık": 5967,
      "itibaren": 5968,
      "lanmış": 5969,
      "gesi": 5970,
      "düzenlenen": 5971,
      "Mo": 5972,
      "yüzden": 5973,
      "blem": 5974,
      "sol": 5975,
      "görüntü": 5976,
      "rah": 5977,
      "Bar": 5978,
      "Har": 5979,
      "lılık": 5980,
      "hiss": 5981,
      "sezon": 5982,
      "Spor": 5983,
      "Çin": 5984,
      "Mustafa": 5985,
      "liğini": 5986,
      "savun": 5987,
      "isti": 5988,
      "Şim": 5989,
      "lerce": 5990,
      "herkes": 5991,
      "fin": 5992,
      "mark": 5993,
      "Böyle": 5994,
      "yada": 5995,
      "sayf": 5996,
      "ümü": 5997,
      "199": 5998,
      "teki": 5999,
      "edilir": 6000,
      "taki": 6001,
      "basın": 6002,
      "Araştır": 6003,
      "deş": 6004,
      "gol": 6005,
      "diler": 6006,
      "deste": 6007,
      "cevap": 6008,
      "lış": 6009,
      "belirtti": 6010,
      "Ül": 6011,
      "Ter": 6012,
      "Yönetim": 6013,
      "Anadolu": 6014,
      "acağı": 6015,
      "opsiyon": 6016,
      "80": 6017,
      "diş": 6018,
      "Mart": 6019,
      "şık": 6020,
      "vade": 6021,
      "Yük": 6022,
      "sında": 6023,
      "olabil": 6024,
      "yaptık": 6025,
      "AS": 6026,
      "giy": 6027,
      "imli": 6028,
      "ikay": 6029,
      "Söz": 6030,
      "girişim": 6031,
      "Sam": 6032,
      "Bakanı": 6033,
      "In": 6034,
      "bilet": 6035,
      "kin": 6036,
      "giz": 6037,
      "elen": 6038,
      "yaptır": 6039,
      "web": 6040,
      "belirten": 6041,
      "fil": 6042,
      "go": 6043,
      "Çok": 6044,
      "mişti": 6045,
      "ırım": 6046,
      "ilerek": 6047,
      "yana": 6048,
      "hen": 6049,
      "duyur": 6050,
      "Yardım": 6051,
      "avantaj": 6052,
      "yolu": 6053,
      "Uy": 6054,
      "ışık": 6055,
      "aşı": 6056,
      "üf": 6057,
      "yaşanan": 6058,
      "ted": 6059,
      "araştırma": 6060,
      "olojik": 6061,
      "sağlar": 6062,
      "day": 6063,
      "üsü": 6064,
      "ga": 6065,
      "verdiği": 6066,
      "Sen": 6067,
      "boyut": 6068,
      "ınıza": 6069,
      "dışı": 6070,
      "ektör": 6071,
      "Bey": 6072,
      "ayram": 6073,
      "luğu": 6074,
      "etkinlik": 6075,
      "Cumhurbaşkanı": 6076,
      "dos": 6077,
      "ayi": 6078,
      "problem": 6079,
      "değişim": 6080,
      "mekan": 6081,
      "şah": 6082,
      "ceki": 6083,
      "May": 6084,
      "lıkla": 6085,
      "silah": 6086,
      "düzenlen": 6087,
      "ves": 6088,
      "2018": 6089,
      "neğin": 6090,
      "İN": 6091,
      "kredi": 6092,
      "Cumhuriyet": 6093,
      "ayında": 6094,
      "güncel": 6095,
      "sig": 6096,
      "2020": 6097,
      "sayısı": 6098,
      "lay": 6099,
      "Aynı": 6100,
      "sonrasında": 6101,
      "siyasi": 6102,
      "üme": 6103,
      "Gü": 6104,
      "Mec": 6105,
      "duygu": 6106,
      "laz": 6107,
      "Genç": 6108,
      "Ab": 6109,
      "ime": 6110,
      "mesaj": 6111,
      "fet": 6112,
      "bilgisayar": 6113,
      "bulunmaktadır": 6114,
      "edilmesi": 6115,
      "karak": 6116,
      "imleri": 6117,
      "list": 6118,
      "puan": 6119,
      "Man": 6120,
      "önünde": 6121,
      "IN": 6122,
      "benzer": 6123,
      "cez": 6124,
      "dünyanın": 6125,
      "işaret": 6126,
      "aket": 6127,
      "alarını": 6128,
      "kaz": 6129,
      "yaşayan": 6130,
      "vaz": 6131,
      "alarının": 6132,
      "üncü": 6133,
      "Kam": 6134,
      "elerine": 6135,
      "Müdürü": 6136,
      "sok": 6137,
      "Çocuk": 6138,
      "tığımız": 6139,
      "adan": 6140,
      "sayıda": 6141,
      "bulunuyor": 6142,
      "tez": 6143,
      "Li": 6144,
      "vekili": 6145,
      "çünkü": 6146,
      "bağım": 6147,
      "esiyle": 6148,
      "trans": 6149,
      "Deniz": 6150,
      "ke": 6151,
      "key": 6152,
      "gec": 6153,
      "Yani": 6154,
      "yürüt": 6155,
      "hayvan": 6156,
      "stratej": 6157,
      "kart": 6158,
      "dört": 6159,
      "Yaş": 6160,
      "str": 6161,
      "malzem": 6162,
      "şimdi": 6163,
      "yeterli": 6164,
      "Orta": 6165,
      "uluğ": 6166,
      "yabancı": 6167,
      "ES": 6168,
      "yanlış": 6169,
      "eksik": 6170,
      "gun": 6171,
      "line": 6172,
      "madı": 6173,
      "Alt": 6174,
      "bank": 6175,
      "umsuz": 6176,
      "Suriye": 6177,
      "soğ": 6178,
      "iran": 6179,
      "insanlar": 6180,
      "inizin": 6181,
      "ale": 6182,
      "başlan": 6183,
      "oloji": 6184,
      "durumu": 6185,
      "yasal": 6186,
      "diğimiz": 6187,
      "katılım": 6188,
      "Merkezi": 6189,
      "Ol": 6190,
      "eğer": 6191,
      "servis": 6192,
      "buna": 6193,
      "değişiklik": 6194,
      "normal": 6195,
      "bana": 6196,
      "2019": 6197,
      "başına": 6198,
      "gerektiğini": 6199,
      "eşil": 6200,
      "Tak": 6201,
      "yandan": 6202,
      "yılı": 6203,
      "EN": 6204,
      "canlı": 6205,
      "uluslararası": 6206,
      "olmuş": 6207,
      "alarak": 6208,
      "çalışmaları": 6209,
      "AD": 6210,
      "merak": 6211,
      "ılmıştır": 6212,
      "Kem": 6213,
      "asit": 6214,
      "vermek": 6215,
      "başında": 6216,
      "neler": 6217,
      "rac": 6218,
      "varsa": 6219,
      "tedavi": 6220,
      "iliyor": 6221,
      "Sü": 6222,
      "diren": 6223,
      "durumunda": 6224,
      "dız": 6225,
      "Bor": 6226,
      "tec": 6227,
      "Fakat": 6228,
      "kararı": 6229,
      "beri": 6230,
      "alanda": 6231,
      "İngiliz": 6232,
      "aslında": 6233,
      "Ağ": 6234,
      "Sal": 6235,
      "açıklamada": 6236,
      "mec": 6237,
      "Pol": 6238,
      "ücretsiz": 6239,
      "ımızı": 6240,
      "dıktan": 6241,
      "yansı": 6242,
      "yapıyor": 6243,
      "alanında": 6244,
      "enerji": 6245,
      "veriş": 6246,
      "olmadığını": 6247,
      "abilecek": 6248,
      "rik": 6249,
      "ilaç": 6250,
      "kayn": 6251,
      "gören": 6252,
      "2017": 6253,
      "elerinde": 6254,
      "uçak": 6255,
      "yav": 6256,
      "inç": 6257,
      "isan": 6258,
      "yazar": 6259,
      "sağlıklı": 6260,
      "neği": 6261,
      "lanması": 6262,
      "Beş": 6263,
      "dın": 6264,
      "mutlak": 6265,
      "Kap": 6266,
      "teslim": 6267,
      "tabi": 6268,
      "ettik": 6269,
      "alanı": 6270,
      "ılıyor": 6271,
      "Temmuz": 6272,
      "hatta": 6273,
      "insanların": 6274,
      "olmaz": 6275,
      "Sosyal": 6276,
      "fiya": 6277,
      "Demir": 6278,
      "verir": 6279,
      "demek": 6280,
      "Si": 6281,
      "ımızın": 6282,
      "fen": 6283,
      "kavram": 6284,
      "Per": 6285,
      "Ahmet": 6286,
      "Et": 6287,
      "atış": 6288,
      "şid": 6289,
      "ısını": 6290,
      "Can": 6291,
      "müda": 6292,
      "emi": 6293,
      "meslek": 6294,
      "ileş": 6295,
      "gr": 6296,
      "hala": 6297,
      "diğinde": 6298,
      "ayda": 6299,
      "alacak": 6300,
      "Mayıs": 6301,
      "ruh": 6302,
      "sıkıntı": 6303,
      "sayı": 6304,
      "Bah": 6305,
      "alır": 6306,
      "karakter": 6307,
      "önceki": 6308,
      "lerdir": 6309,
      "eleş": 6310,
      "yapılması": 6311,
      "Konu": 6312,
      "doktor": 6313,
      "dep": 6314,
      "piyon": 6315,
      "terek": 6316,
      "adres": 6317,
      "panya": 6318,
      "kuş": 6319,
      "resmi": 6320,
      "may": 6321,
      "Burada": 6322,
      "operasyon": 6323,
      "yerde": 6324,
      "Güven": 6325,
      "masından": 6326,
      "vardı": 6327,
      "hizmeti": 6328,
      "elektrik": 6329,
      "gece": 6330,
      "sınav": 6331,
      "Be": 6332,
      "zengin": 6333,
      "memnun": 6334,
      "yeter": 6335,
      "asker": 6336,
      "tanın": 6337,
      "lığını": 6338,
      "ımda": 6339,
      "70": 6340,
      "ılarak": 6341,
      "ünüz": 6342,
      "onik": 6343,
      "kendini": 6344,
      "zaten": 6345,
      "yonel": 6346,
      "sonucunda": 6347,
      "kural": 6348,
      "ümüzde": 6349,
      "fakat": 6350,
      "ratik": 6351,
      "otomo": 6352,
      "nerede": 6353,
      "çerçe": 6354,
      "aracı": 6355,
      "mür": 6356,
      "Allah": 6357,
      "ödül": 6358,
      "Bitcoin": 6359,
      "est": 6360,
      "dern": 6361,
      "olmadığı": 6362,
      "Hem": 6363,
      "abi": 6364,
      "ölüm": 6365,
      "olumsuz": 6366,
      "Han": 6367,
      "mahal": 6368,
      "incelen": 6369,
      "AM": 6370,
      "sunu": 6371,
      "mutlu": 6372,
      "tiği": 6373,
      "bahçe": 6374,
      "tarz": 6375,
      "sağlamak": 6376,
      "Ad": 6377,
      "Kır": 6378,
      "emez": 6379,
      "platform": 6380,
      "hikay": 6381,
      "fesyonel": 6382,
      "imler": 6383,
      "sahiptir": 6384,
      "jital": 6385,
      "ısına": 6386,
      "yeri": 6387,
      "tey": 6388,
      "beş": 6389,
      "tesis": 6390,
      "kış": 6391,
      "Sel": 6392,
      "Kat": 6393,
      "İslam": 6394,
      "adlı": 6395,
      "mon": 6396,
      "Part": 6397,
      "kısm": 6398,
      "mıyor": 6399,
      "yaparak": 6400,
      "mayacak": 6401,
      "gelişim": 6402,
      "beyaz": 6403,
      "Ver": 6404,
      "ilgi": 6405,
      "KK": 6406,
      "giriş": 6407,
      "itir": 6408,
      "tern": 6409,
      "saldırı": 6410,
      "amak": 6411,
      "kaliteli": 6412,
      "Eylül": 6413,
      "demir": 6414,
      "ediyorum": 6415,
      "Ek": 6416,
      "sağlayan": 6417,
      "tanesi": 6418,
      "motor": 6419,
      "benz": 6420,
      "Bank": 6421,
      "makam": 6422,
      "makin": 6423,
      "one": 6424,
      "Yak": 6425,
      "Di": 6426,
      "personel": 6427,
      "toprak": 6428,
      "rum": 6429,
      "Ger": 6430,
      "ınca": 6431,
      "öldür": 6432,
      "28": 6433,
      "Kaz": 6434,
      "şüp": 6435,
      "akşam": 6436,
      "ck": 6437,
      "2016": 6438,
      "kullandı": 6439,
      "amaz": 6440,
      "masıyla": 6441,
      "Proj": 6442,
      "ilan": 6443,
      "sizi": 6444,
      "genellikle": 6445,
      "arttır": 6446,
      "fat": 6447,
      "500": 6448,
      "gerçekten": 6449,
      "imz": 6450,
      "ödeme": 6451,
      "sip": 6452,
      "Tic": 6453,
      "duğunu": 6454,
      "Aş": 6455,
      "müzik": 6456,
      "eklen": 6457,
      "dart": 6458,
      "larca": 6459,
      "odak": 6460,
      "Osmanlı": 6461,
      "merkezi": 6462,
      "kağ": 6463,
      "aile": 6464,
      "içerik": 6465,
      "altın": 6466,
      "iği": 6467,
      "başta": 6468,
      "düşünc": 6469,
      "arada": 6470,
      "yere": 6471,
      "götür": 6472,
      "Ocak": 6473,
      "eylem": 6474,
      "gerekmektedir": 6475,
      "fiz": 6476,
      "başı": 6477,
      "Haziran": 6478,
      "yerek": 6479,
      "yararlan": 6480,
      "İL": 6481,
      "faiz": 6482,
      "Atat": 6483,
      "çocuğ": 6484,
      "üstü": 6485,
      "Tan": 6486,
      "enf": 6487,
      "dakik": 6488,
      "uzey": 6489,
      "eleştir": 6490,
      "tanıt": 6491,
      "Atatürk": 6492,
      "Do": 6493,
      "banka": 6494,
      "layı": 6495,
      "Kasım": 6496,
      "çarp": 6497,
      "soy": 6498,
      "kelim": 6499,
      "Mahall": 6500,
      "fikir": 6501,
      "Go": 6502,
      "yapma": 6503,
      "firmalar": 6504,
      "ledik": 6505,
      "Siz": 6506,
      "kenin": 6507,
      "vvet": 6508,
      "gül": 6509,
      "Kadın": 6510,
      "stik": 6511,
      "Yaz": 6512,
      "EL": 6513,
      "ceği": 6514,
      "Nisan": 6515,
      "ediyoruz": 6516,
      "ete": 6517,
      "örgüt": 6518,
      "Mes": 6519,
      "kayde": 6520,
      "yılda": 6521,
      "doğrul": 6522,
      "mutlaka": 6523,
      "Ma": 6524,
      "yatırımcı": 6525,
      "öne": 6526,
      "Bul": 6527,
      "işç": 6528,
      "çoğu": 6529,
      "sırada": 6530,
      "UR": 6531,
      "lenme": 6532,
      "belirterek": 6533,
      "arz": 6534,
      "lira": 6535,
      "Antalya": 6536,
      "ikti": 6537,
      "birliği": 6538,
      "uçuş": 6539,
      "hast": 6540,
      "aşa": 6541,
      "çevir": 6542,
      "pas": 6543,
      "manı": 6544,
      "tere": 6545,
      "27": 6546,
      "demok": 6547,
      "alına": 6548,
      "lediği": 6549,
      "iğer": 6550,
      "İşte": 6551,
      "kadro": 6552,
      "pp": 6553,
      "yıllarda": 6554,
      "Almanya": 6555,
      "çab": 6556,
      "AY": 6557,
      "26": 6558,
      "aşama": 6559,
      "sızlık": 6560,
      "Fat": 6561,
      "Sa": 6562,
      "kullanarak": 6563,
      "ğine": 6564,
      "rez": 6565,
      "ünlü": 6566,
      "diğiniz": 6567,
      "gösteren": 6568,
      "tok": 6569,
      "dis": 6570,
      "Mal": 6571,
      "Birliği": 6572,
      "best": 6573,
      "dikleri": 6574,
      "konum": 6575,
      "ücü": 6576,
      "yız": 6577,
      "hayatını": 6578,
      "söylem": 6579,
      "Şimdi": 6580,
      "acağız": 6581,
      "lisi": 6582,
      "nes": 6583,
      "etkisi": 6584,
      "raki": 6585,
      "hayal": 6586,
      "anti": 6587,
      "özgür": 6588,
      "maliyet": 6589,
      "TÜ": 6590,
      "larımızın": 6591,
      "kop": 6592,
      "baskı": 6593,
      "tehlik": 6594,
      "ıldığı": 6595,
      "derin": 6596,
      "Sor": 6597,
      "doğrultu": 6598,
      "görmek": 6599,
      "biy": 6600,
      "Fener": 6601,
      "yapacak": 6602,
      "uyar": 6603,
      "kazandır": 6604,
      "mobil": 6605,
      "üman": 6606,
      "ğim": 6607,
      "Yüksek": 6608,
      "olayı": 6609,
      "Diğer": 6610,
      "büs": 6611,
      "anlay": 6612,
      "uar": 6613,
      "alara": 6614,
      "Bo": 6615,
      "önüne": 6616,
      "pop": 6617,
      "halde": 6618,
      "yaşındaki": 6619,
      "video": 6620,
      "idar": 6621,
      "İlçe": 6622,
      "veri": 6623,
      "keri": 6624,
      "kitab": 6625,
      "sorum": 6626,
      "ulması": 6627,
      "Galat": 6628,
      "Prof": 6629,
      "ildiği": 6630,
      "arkı": 6631,
      "ığın": 6632,
      "uygulamalar": 6633,
      "lanma": 6634,
      "kurtar": 6635,
      "pet": 6636,
      "suna": 6637,
      "tahmin": 6638,
      "yse": 6639,
      "hayata": 6640,
      "At": 6641,
      "bağlantı": 6642,
      "siye": 6643,
      "ilendir": 6644,
      "proje": 6645,
      "nedir": 6646,
      "bölgeler": 6647,
      "yoktur": 6648,
      "Bin": 6649,
      "eksiyon": 6650,
      "cep": 6651,
      "edeki": 6652,
      "borç": 6653,
      "döneminde": 6654,
      "dost": 6655,
      "tutuk": 6656,
      "bahs": 6657,
      "unan": 6658,
      "ceza": 6659,
      "basit": 6660,
      "güc": 6661,
      "ortalama": 6662,
      "larınızı": 6663,
      "tren": 6664,
      "yerel": 6665,
      "alarına": 6666,
      "Kültür": 6667,
      "90": 6668,
      "aktif": 6669,
      "olumlu": 6670,
      "mızı": 6671,
      "Sev": 6672,
      "Samsun": 6673,
      "belirli": 6674,
      "yem": 6675,
      "Gül": 6676,
      "yolc": 6677,
      "Kemal": 6678,
      "yahat": 6679,
      "yapabil": 6680,
      "şehr": 6681,
      "tul": 6682,
      "ilçesinde": 6683,
      "reklam": 6684,
      "asından": 6685,
      "İran": 6686,
      "hap": 6687,
      "Ür": 6688,
      "ateş": 6689,
      "önemlidir": 6690,
      "oranı": 6691,
      "mayın": 6692,
      "yukar": 6693,
      "onay": 6694,
      "US": 6695,
      "2021": 6696,
      "Tay": 6697,
      "henüz": 6698,
      "ihtiyac": 6699,
      "onları": 6700,
      "teklif": 6701,
      "pozisyon": 6702,
      "buluş": 6703,
      "imizde": 6704,
      "yerinde": 6705,
      "keş": 6706,
      "kardeş": 6707,
      "Yat": 6708,
      "imar": 6709,
      "eviz": 6710,
      "Val": 6711,
      "Bazı": 6712,
      "aylık": 6713,
      "çak": 6714,
      "ğinde": 6715,
      "Lig": 6716,
      "ıma": 6717,
      "yerleş": 6718,
      "içine": 6719,
      "lerinizi": 6720,
      "kum": 6721,
      "edilmiş": 6722,
      "etici": 6723,
      "ısının": 6724,
      "ürünleri": 6725,
      "ekim": 6726,
      "sp": 6727,
      "asaray": 6728,
      "şiddet": 6729,
      "Ekim": 6730,
      "sürede": 6731,
      "ila": 6732,
      "uğr": 6733,
      "veriyor": 6734,
      "sefer": 6735,
      "ınızda": 6736,
      "yanıt": 6737,
      "yapıla": 6738,
      "bzon": 6739,
      "arama": 6740,
      "karşısında": 6741,
      "acaktır": 6742,
      "değerli": 6743,
      "Ha": 6744,
      "yaygın": 6745,
      "kapı": 6746,
      "lanır": 6747,
      "ediy": 6748,
      "ori": 6749,
      "yılın": 6750,
      "sas": 6751,
      "Haber": 6752,
      "Galatasaray": 6753,
      "büt": 6754,
      "anlamda": 6755,
      "35": 6756,
      "Amerika": 6757,
      "günlerde": 6758,
      "profesyonel": 6759,
      "İR": 6760,
      "ıza": 6761,
      "vurgula": 6762,
      "önlem": 6763,
      "OS": 6764,
      "kit": 6765,
      "mesaf": 6766,
      "ati": 6767,
      "bilen": 6768,
      "ücu": 6769,
      "ücr": 6770,
      "Trabzon": 6771,
      "etmektedir": 6772,
      "eci": 6773,
      "anlı": 6774,
      "kamer": 6775,
      "işle": 6776,
      "fiyatı": 6777,
      "29": 6778,
      "atör": 6779,
      "asıyla": 6780,
      "sene": 6781,
      "yavaş": 6782,
      "racat": 6783,
      "seri": 6784,
      "anan": 6785,
      "kanal": 6786,
      "olmuştur": 6787,
      "TE": 6788,
      "kaybet": 6789,
      "eyin": 6790,
      "liğinde": 6791,
      "lığın": 6792,
      "yapıldı": 6793,
      "2015": 6794,
      "forex": 6795,
      "eğlen": 6796,
      "tesi": 6797,
      "gide": 6798,
      "transfer": 6799,
      "BM": 6800,
      "car": 6801,
      "ucuz": 6802,
      "edim": 6803,
      "masa": 6804,
      "ağrı": 6805,
      "Bursa": 6806,
      "müşteri": 6807,
      "lığına": 6808,
      "Aralık": 6809,
      "lenmesi": 6810,
      "biliriz": 6811,
      "taz": 6812,
      "iddia": 6813,
      "Ku": 6814,
      "dit": 6815,
      "lasyon": 6816,
      "Örneğin": 6817,
      "Aydın": 6818,
      "ikili": 6819,
      "koru": 6820,
      "Halk": 6821,
      "tecrü": 6822,
      "bilmek": 6823,
      "hukuk": 6824,
      "tiler": 6825,
      "uzur": 6826,
      "ipto": 6827,
      "Kend": 6828,
      "cağına": 6829,
      "Ulus": 6830,
      "dip": 6831,
      "AŞ": 6832,
      "psik": 6833,
      "Ken": 6834,
      "ogle": 6835,
      "sizlere": 6836,
      "birim": 6837,
      "mail": 6838,
      "tra": 6839,
      "standart": 6840,
      "AKP": 6841,
      "\",": 6842,
      "etmeye": 6843,
      "Kö": 6844,
      "lanmıştır": 6845,
      "Sür": 6846,
      "izasyon": 6847,
      "dünyada": 6848,
      "yıldır": 6849,
      "şik": 6850,
      "şeyi": 6851,
      "sta": 6852,
      "Okul": 6853,
      "lanıyor": 6854,
      "ettir": 6855,
      "İS": 6856,
      "yalnızca": 6857,
      "sunun": 6858,
      "alışveriş": 6859,
      "sizlik": 6860,
      "HD": 6861,
      "OR": 6862,
      "hend": 6863,
      "cağız": 6864,
      "mük": 6865,
      "katıldı": 6866,
      "paket": 6867,
      "istediğiniz": 6868,
      "kaf": 6869,
      "taban": 6870,
      "görüyor": 6871,
      "ülü": 6872,
      "gisi": 6873,
      "edilmiştir": 6874,
      "düzenlem": 6875,
      "doldur": 6876,
      "tıyor": 6877,
      "ceğini": 6878,
      "tılı": 6879,
      "dığım": 6880,
      "kendisine": 6881,
      "Res": 6882,
      "Dur": 6883,
      "Koca": 6884,
      "kilo": 6885,
      "Ber": 6886,
      "kişisel": 6887,
      "davranış": 6888,
      "hafif": 6889,
      "modern": 6890,
      "TC": 6891,
      "mesinin": 6892,
      "liğe": 6893,
      "korun": 6894,
      "Gazi": 6895,
      "dası": 6896,
      "açıkladı": 6897,
      "konut": 6898,
      "Fenerbahçe": 6899,
      "not": 6900,
      "Beşik": 6901,
      "dıklarını": 6902,
      "Ticaret": 6903,
      "sona": 6904,
      "TV": 6905,
      "elidir": 6906,
      "dolu": 6907,
      "sunuyor": 6908,
      "hoş": 6909,
      "sabah": 6910,
      "iste": 6911,
      "birisi": 6912,
      "rail": 6913,
      "eceğiz": 6914,
      "sonraki": 6915,
      "tatil": 6916,
      "bec": 6917,
      "siyaset": 6918,
      "Bas": 6919,
      "Sade": 6920,
      "Kürt": 6921,
      "Başbakan": 6922,
      "ladığı": 6923,
      "öğrenci": 6924,
      "düşür": 6925,
      "ettiğini": 6926,
      "akar": 6927,
      "elerden": 6928,
      "fiyatları": 6929,
      "Şir": 6930,
      "lok": 6931,
      "Buna": 6932,
      "belki": 6933,
      "Kız": 6934,
      "deneyim": 6935,
      "bizi": 6936,
      "belediye": 6937,
      "cilik": 6938,
      "Den": 6939,
      "Mur": 6940,
      "işler": 6941,
      "Yardımcısı": 6942,
      "güvenli": 6943,
      "doğu": 6944,
      "danış": 6945,
      "nüf": 6946,
      "ydı": 6947,
      "acağını": 6948,
      "yazılım": 6949,
      "türk": 6950,
      "ıştır": 6951,
      "hac": 6952,
      "yayım": 6953,
      "onların": 6954,
      "gur": 6955,
      "Gir": 6956,
      "Dış": 6957,
      "davet": 6958,
      "çeken": 6959,
      "Ka": 6960,
      "ilmektedir": 6961,
      "beni": 6962,
      "anlamına": 6963,
      "irken": 6964,
      "faktör": 6965,
      "ülkenin": 6966,
      "yapılır": 6967,
      "başlık": 6968,
      "lığa": 6969,
      "eticiler": 6970,
      "iktidar": 6971,
      "açı": 6972,
      "leyerek": 6973,
      "45": 6974,
      "afir": 6975,
      "bebek": 6976,
      "Beşiktaş": 6977,
      "Derneği": 6978,
      "bede": 6979,
      "yerleştir": 6980,
      "performans": 6981,
      "Gök": 6982,
      "süreci": 6983,
      "raman": 6984,
      "yetkil": 6985,
      "öden": 6986,
      "karşılık": 6987,
      "sayılı": 6988,
      "bilinen": 6989,
      "Ülk": 6990,
      "iter": 6991,
      "dro": 6992,
      "tavsiye": 6993,
      "tutar": 6994,
      "Doğu": 6995,
      "şeyler": 6996,
      "unsur": 6997,
      "sağlaya": 6998,
      "büyü": 6999,
      "maması": 7000,
      "bün": 7001,
      "azal": 7002,
      "Mahallesi": 7003,
      "dijital": 7004,
      "olursa": 7005,
      "açıklamalar": 7006,
      "stos": 7007,
      "ekipleri": 7008,
      "Çev": 7009,
      "Açık": 7010,
      "Seç": 7011,
      "zorun": 7012,
      "mini": 7013,
      "Se": 7014,
      "Peki": 7015,
      "ülkemiz": 7016,
      "taşın": 7017,
      "etmiş": 7018,
      "akıllı": 7019,
      "aracılığı": 7020,
      "İngiltere": 7021,
      "çap": 7022,
      "seyahat": 7023,
      "nu": 7024,
      "ansı": 7025,
      "yaralan": 7026,
      "ww": 7027,
      "lez": 7028,
      "omet": 7029,
      "kişilerin": 7030,
      "pen": 7031,
      "şar": 7032,
      "anne": 7033,
      "kazanç": 7034,
      "ısınız": 7035,
      "işlemi": 7036,
      "öncesi": 7037,
      "liğin": 7038,
      "çıkış": 7039,
      "tuğ": 7040,
      "getiren": 7041,
      "kullanımı": 7042,
      "olmasına": 7043,
      "Diy": 7044,
      "doğrudan": 7045,
      "sipar": 7046,
      "İsrail": 7047,
      "ia": 7048,
      "süz": 7049,
      "edebilirsiniz": 7050,
      "yapmaya": 7051,
      "App": 7052,
      "Kim": 7053,
      "heyec": 7054,
      "Müz": 7055,
      "Sadece": 7056,
      "Amerik": 7057,
      "esindeki": 7058,
      "uro": 7059,
      "layarak": 7060,
      "Dav": 7061,
      "ova": 7062,
      "senin": 7063,
      "online": 7064,
      "Öğren": 7065,
      "ölçü": 7066,
      "kus": 7067,
      "üyle": 7068,
      "hakim": 7069,
      "Google": 7070,
      "askeri": 7071,
      "yapmış": 7072,
      "gem": 7073,
      "incelem": 7074,
      "üzerindeki": 7075,
      "bon": 7076,
      "Sanat": 7077,
      "Ho": 7078,
      "mit": 7079,
      "ürünler": 7080,
      "alg": 7081,
      "Müs": 7082,
      "kaydet": 7083,
      "teknoloji": 7084,
      "huzur": 7085,
      "ifadelerini": 7086,
      "bundan": 7087,
      "pa": 7088,
      "taşıma": 7089,
      "Ki": 7090,
      "leyici": 7091,
      "sorumlu": 7092,
      "ılmaz": 7093,
      "dağıt": 7094,
      "onav": 7095,
      "fel": 7096,
      "2014": 7097,
      "etme": 7098,
      "şikayet": 7099,
      "Böylece": 7100,
      "Şubat": 7101,
      "birik": 7102,
      "bitir": 7103,
      "imza": 7104,
      "rakam": 7105,
      "zet": 7106,
      "deli": 7107,
      "Co": 7108,
      "sebeb": 7109,
      "inizde": 7110,
      "Güney": 7111,
      "özellikleri": 7112,
      "sağlayacak": 7113,
      "kaldı": 7114,
      "otomobil": 7115,
      "tane": 7116,
      "Kullan": 7117,
      "tarım": 7118,
      "liğine": 7119,
      "iri": 7120,
      "bis": 7121,
      "Bal": 7122,
      "ukat": 7123,
      "yaşama": 7124,
      "sever": 7125,
      "verilm": 7126,
      "evizyon": 7127,
      "liye": 7128,
      "takdir": 7129,
      "abet": 7130,
      "İK": 7131,
      "red": 7132,
      "lazım": 7133,
      "yürü": 7134,
      "gitti": 7135,
      "sının": 7136,
      "31": 7137,
      "giden": 7138,
      "istih": 7139,
      "fab": 7140,
      "serbest": 7141,
      "laşma": 7142,
      "ısır": 7143,
      "tepe": 7144,
      "yetiştir": 7145,
      "ğe": 7146,
      "alıp": 7147,
      "Hizmet": 7148,
      "özelliği": 7149,
      "virüs": 7150,
      "uyum": 7151,
      "yle": 7152,
      "aşırı": 7153,
      "defa": 7154,
      "are": 7155,
      "alim": 7156,
      "yip": 7157,
      "istiyorum": 7158,
      "sokak": 7159,
      "Yer": 7160,
      "liler": 7161,
      "doğrultusunda": 7162,
      "bot": 7163,
      "brıs": 7164,
      "ht": 7165,
      "Bağ": 7166,
      "Uluslararası": 7167,
      "Say": 7168,
      "inansal": 7169,
      "ediliyor": 7170,
      "gerektir": 7171,
      "kuru": 7172,
      "tion": 7173,
      "Kıbrıs": 7174,
      "esas": 7175,
      "tören": 7176,
      "Hol": 7177,
      "kateg": 7178,
      "temin": 7179,
      "Bunu": 7180,
      "iyileş": 7181,
      "kesinlikle": 7182,
      "otomatik": 7183,
      "ımızda": 7184,
      "Yunan": 7185,
      "hayır": 7186,
      "ED": 7187,
      "Sayın": 7188,
      "müdür": 7189,
      "Ham": 7190,
      "larımızı": 7191,
      "milli": 7192,
      "Tes": 7193,
      "amel": 7194,
      "piş": 7195,
      "hel": 7196,
      "almış": 7197,
      "ternatif": 7198,
      "formu": 7199,
      "iydi": 7200,
      "çalışıyor": 7201,
      "leşme": 7202,
      "sini": 7203,
      "hasta": 7204,
      "içek": 7205,
      "aydın": 7206,
      "numar": 7207,
      "Tabi": 7208,
      "dök": 7209,
      "Araştırma": 7210,
      "yönetimi": 7211,
      "vücu": 7212,
      "hükümet": 7213,
      "onlar": 7214,
      "eyle": 7215,
      "Kah": 7216,
      "uldu": 7217,
      "güneş": 7218,
      "Şah": 7219,
      "ücut": 7220,
      "isimli": 7221,
      "cının": 7222,
      "Ağu": 7223,
      "varlık": 7224,
      "şı": 7225,
      "vel": 7226,
      "ümüzdeki": 7227,
      "sorunu": 7228,
      "anak": 7229,
      "ortadan": 7230,
      "İY": 7231,
      "türü": 7232,
      "laması": 7233,
      "tedbir": 7234,
      "sivil": 7235,
      "Gür": 7236,
      "dikten": 7237,
      "sert": 7238,
      "söyleyen": 7239,
      "iyer": 7240,
      "iksel": 7241,
      "Program": 7242,
      "log": 7243,
      "nedeni": 7244,
      "alındı": 7245,
      "yarı": 7246,
      "başlar": 7247,
      "gelişmeler": 7248,
      "areti": 7249,
      "kendine": 7250,
      "uluğu": 7251,
      "tarif": 7252,
      "etmesi": 7253,
      "Düz": 7254,
      "birinci": 7255,
      "üçüncü": 7256,
      "görülen": 7257,
      "programı": 7258,
      "Cam": 7259,
      "Yılmaz": 7260,
      "yapım": 7261,
      "elem": 7262,
      "imkanı": 7263,
      "verildi": 7264,
      "ilim": 7265,
      "olduğuna": 7266,
      "Milletvekili": 7267,
      "ina": 7268,
      "Ağustos": 7269,
      "gelenek": 7270,
      "yazılı": 7271,
      "bilgileri": 7272,
      "olanak": 7273,
      "tuk": 7274,
      "Re": 7275,
      "artesi": 7276,
      "Kurul": 7277,
      "umak": 7278,
      "Mak": 7279,
      "emmel": 7280,
      "bette": 7281,
      "güvenilir": 7282,
      "soruştur": 7283,
      "lili": 7284,
      "ılıç": 7285,
      "gayr": 7286,
      "denetim": 7287,
      "ON": 7288,
      "yola": 7289,
      "def": 7290,
      "nam": 7291,
      "AP": 7292,
      "Teknik": 7293,
      "öyl": 7294,
      "ediği": 7295,
      "Ph": 7296,
      "marka": 7297,
      "iklet": 7298,
      "hendis": 7299,
      "işlemleri": 7300,
      "giren": 7301,
      "toplu": 7302,
      "Vak": 7303,
      "arım": 7304,
      "cen": 7305,
      "dışarı": 7306,
      "gücü": 7307,
      "ala": 7308,
      "EK": 7309,
      ".'": 7310,
      "döviz": 7311,
      "fe": 7312,
      "İki": 7313,
      "şans": 7314,
      "mesel": 7315,
      "balık": 7316,
      "Sistem": 7317,
      "dönüştür": 7318,
      "evde": 7319,
      "Bayram": 7320,
      "ihracat": 7321,
      "lisans": 7322,
      "öp": 7323,
      "tansiy": 7324,
      "madığı": 7325,
      "Fil": 7326,
      "içeren": 7327,
      "yeşil": 7328,
      "Tarih": 7329,
      "Cen": 7330,
      "gıç": 7331,
      "Göz": 7332,
      "vesinde": 7333,
      "İyi": 7334,
      "ceğiz": 7335,
      "Lis": 7336,
      "isiyle": 7337,
      "The": 7338,
      "ust": 7339,
      "Mas": 7340,
      "bı": 7341,
      "and": 7342,
      "Yine": 7343,
      "olmadan": 7344,
      "İM": 7345,
      "nitelik": 7346,
      "ederken": 7347,
      "Sab": 7348,
      "kale": 7349,
      "bağımsız": 7350,
      "yoksa": 7351,
      "hazırlık": 7352,
      "yakalan": 7353,
      "yapısı": 7354,
      "ima": 7355,
      "ındır": 7356,
      "Yan": 7357,
      "küresel": 7358,
      "Meclis": 7359,
      "duvar": 7360,
      "pla": 7361,
      "toplumsal": 7362,
      "popüler": 7363,
      "Oyun": 7364,
      "beğen": 7365,
      "Kol": 7366,
      "eşi": 7367,
      "Tel": 7368,
      "Alan": 7369,
      "yalar": 7370,
      "çu": 7371,
      "vb": 7372,
      "kıya": 7373,
      "edip": 7374,
      "OL": 7375,
      "ayıf": 7376,
      "gündem": 7377,
      "firma": 7378,
      "çay": 7379,
      "geçerli": 7380,
      "yönünde": 7381,
      "malara": 7382,
      "ülebilir": 7383,
      "ws": 7384,
      "çıkıyor": 7385,
      "elt": 7386,
      "Türkçe": 7387,
      "Uzun": 7388,
      "diyerek": 7389,
      "göl": 7390,
      "meş": 7391,
      "layın": 7392,
      "Üst": 7393,
      "onavirüs": 7394,
      "dahi": 7395,
      "isinden": 7396,
      "desteği": 7397,
      "ecep": 7398,
      "beden": 7399,
      "kendisini": 7400,
      "parti": 7401,
      "Irak": 7402,
      "adde": 7403,
      "getirdi": 7404,
      "karşılaştır": 7405,
      "keti": 7406,
      "Yal": 7407,
      "ilgilen": 7408,
      "Haf": 7409,
      "kripto": 7410,
      "etkilen": 7411,
      "biçimde": 7412,
      "pil": 7413,
      "neredeyse": 7414,
      "Recep": 7415,
      "Sonu": 7416,
      "düzenli": 7417,
      "yaparken": 7418,
      "Bilg": 7419,
      "olmasını": 7420,
      "değeri": 7421,
      "Yüz": 7422,
      "kel": 7423,
      "Şam": 7424,
      "göç": 7425,
      "elerinden": 7426,
      "PKK": 7427,
      "mağaz": 7428,
      "Pazar": 7429,
      "ımın": 7430,
      "oyunu": 7431,
      "inal": 7432,
      "dat": 7433,
      "söylen": 7434,
      "manızı": 7435,
      "durdur": 7436,
      "Bab": 7437,
      "elerle": 7438,
      "Bankası": 7439,
      "isiniz": 7440,
      "Hay": 7441,
      "mız": 7442,
      "üyesi": 7443,
      "Bizim": 7444,
      "katılan": 7445,
      "yakal": 7446,
      "Yapılan": 7447,
      "fayda": 7448,
      "eceğine": 7449,
      "süresi": 7450,
      "EM": 7451,
      "işin": 7452,
      "II": 7453,
      "düşüş": 7454,
      "alternatif": 7455,
      "Az": 7456,
      "tepki": 7457,
      "diyen": 7458,
      "hakkı": 7459,
      "yalı": 7460,
      "öğrencilerin": 7461,
      "kapalı": 7462,
      "malarını": 7463,
      "insanın": 7464,
      "Jo": 7465,
      "lerimizi": 7466,
      "seçen": 7467,
      "2013": 7468,
      "karıştır": 7469,
      "ınızın": 7470,
      "azalt": 7471,
      "kapan": 7472,
      "65": 7473,
      "kapasit": 7474,
      "DA": 7475,
      "lal": 7476,
      "unuzu": 7477,
      "gönül": 7478,
      "şe": 7479,
      "eytin": 7480,
      "park": 7481,
      "Fransa": 7482,
      "kategor": 7483,
      "İb": 7484,
      "bölgede": 7485,
      "eğitimi": 7486,
      "gerçekleştirilen": 7487,
      "km": 7488,
      "fı": 7489,
      "ebilecek": 7490,
      "nden": 7491,
      "Küç": 7492,
      "kesim": 7493,
      "Nasıl": 7494,
      "suyu": 7495,
      "mamış": 7496,
      "hizmetleri": 7497,
      "detaylı": 7498,
      "bunların": 7499,
      "çocuklar": 7500,
      "Köy": 7501,
      "bazen": 7502,
      "edilecek": 7503,
      "süt": 7504,
      "Değ": 7505,
      "cık": 7506,
      "asla": 7507,
      "büny": 7508,
      "anlık": 7509,
      "amet": 7510,
      "sap": 7511,
      "yerini": 7512,
      "iptal": 7513,
      "üye": 7514,
      "gre": 7515,
      "orada": 7516,
      "enerj": 7517,
      "kullanmak": 7518,
      "iliş": 7519,
      "Bat": 7520,
      "yayıl": 7521,
      "ülkede": 7522,
      "urken": 7523,
      "paz": 7524,
      "muyor": 7525,
      "muha": 7526,
      "yaptığ": 7527,
      "çoğun": 7528,
      "So": 7529,
      "almaya": 7530,
      "düşünüyor": 7531,
      "tehdit": 7532,
      "onya": 7533,
      "Fa": 7534,
      "vekil": 7535,
      "kişilik": 7536,
      "kla": 7537,
      "çiler": 7538,
      "kuvvet": 7539,
      "binlerce": 7540,
      "sağlıyor": 7541,
      "yıldız": 7542,
      "arken": 7543,
      "yasak": 7544,
      "kalp": 7545,
      "düğünü": 7546,
      "Partisi": 7547,
      "acağınız": 7548,
      "Cez": 7549,
      "faydalan": 7550,
      "vazgeç": 7551,
      "Yatırım": 7552,
      "doğum": 7553,
      "genelinde": 7554,
      "Eski": 7555,
      "bakır": 7556,
      "Fakül": 7557,
      "çerçevesinde": 7558,
      "Konya": 7559,
      "no": 7560,
      "bahç": 7561,
      "the": 7562,
      "isa": 7563,
      "larındaki": 7564,
      "Cem": 7565,
      "Önc": 7566,
      "Üy": 7567,
      "çalışması": 7568,
      "mükemmel": 7569,
      "çuk": 7570,
      "peş": 7571,
      "becer": 7572,
      "giderek": 7573,
      "rahim": 7574,
      "geçtiğimiz": 7575,
      "Şeh": 7576,
      "yönlendir": 7577,
      "futbolcu": 7578,
      "kıy": 7579,
      "potansiy": 7580,
      "bunlar": 7581,
      "tüketim": 7582,
      "cilt": 7583,
      "bakış": 7584,
      "alardan": 7585,
      "ticari": 7586,
      "Murat": 7587,
      "Küçük": 7588,
      "temsilc": 7589,
      "kısı": 7590,
      "Op": 7591,
      "ferans": 7592,
      "lir": 7593,
      "büyüm": 7594,
      "almaktadır": 7595,
      "ces": 7596,
      "ihtim": 7597,
      "uluyor": 7598,
      "lig": 7599,
      "nik": 7600,
      "ğinin": 7601,
      "SS": 7602,
      "utan": 7603,
      "198": 7604,
      "müşteriler": 7605,
      "Yıldır": 7606,
      "kayıp": 7607,
      "vik": 7608,
      "roman": 7609,
      "kriz": 7610,
      "kültürel": 7611,
      "oyu": 7612,
      "civar": 7613,
      "vergi": 7614,
      "No": 7615,
      "mücadel": 7616,
      "söylü": 7617,
      "Ün": 7618,
      "dikkate": 7619,
      "ihtiyacı": 7620,
      "Sanayi": 7621,
      "Fatih": 7622,
      "İst": 7623,
      "keyif": 7624,
      "leyin": 7625,
      "şiir": 7626,
      "?\"": 7627,
      "diğim": 7628,
      "husu": 7629,
      "derec": 7630,
      "Dolayı": 7631,
      "hbet": 7632,
      "Mev": 7633,
      "bulundur": 7634,
      "şehit": 7635,
      "Dan": 7636,
      "kred": 7637,
      "müştür": 7638,
      "Var": 7639,
      "dosya": 7640,
      "kısmı": 7641,
      "anım": 7642,
      "ilçe": 7643,
      "zayıf": 7644,
      "75": 7645,
      "gıda": 7646,
      "Belediy": 7647,
      "liğinin": 7648,
      "hisse": 7649,
      "vücut": 7650,
      "Tayyip": 7651,
      "kırmızı": 7652,
      "tüket": 7653,
      "memur": 7654,
      "Müsl": 7655,
      "gözlem": 7656,
      "anlayış": 7657,
      "caktır": 7658,
      "larımıza": 7659,
      "sitesi": 7660,
      "İkinci": 7661,
      "IR": 7662,
      "Başkanlığı": 7663,
      "beklent": 7664,
      "Altın": 7665,
      "işte": 7666,
      "MHP": 7667,
      "Men": 7668,
      "Emniyet": 7669,
      "ürünü": 7670,
      "bunları": 7671,
      "olacağını": 7672,
      "finansal": 7673,
      "rika": 7674,
      "grafik": 7675,
      "çevre": 7676,
      "veriler": 7677,
      "depr": 7678,
      "vas": 7679,
      "Sul": 7680,
      "boğ": 7681,
      "İnternet": 7682,
      "sul": 7683,
      "mesinde": 7684,
      "lardı": 7685,
      "alabil": 7686,
      "Bay": 7687,
      "Fir": 7688,
      "Batı": 7689,
      "Kılıç": 7690,
      "val": 7691,
      "zinc": 7692,
      "misafir": 7693,
      "görsel": 7694,
      "zih": 7695,
      "hane": 7696,
      "noktada": 7697,
      "çocukların": 7698,
      "inşaat": 7699,
      "mesiyle": 7700,
      "memek": 7701,
      "turizm": 7702,
      "düştü": 7703,
      "İh": 7704,
      "esnaf": 7705,
      "maye": 7706,
      "Sonuç": 7707,
      "alınması": 7708,
      "Şirket": 7709,
      "gösteriyor": 7710,
      ".,": 7711,
      "zam": 7712,
      "Dir": 7713,
      "hızla": 7714,
      "ullah": 7715,
      "edile": 7716,
      "edebilir": 7717,
      "kampanya": 7718,
      "şif": 7719,
      "sanatçı": 7720,
      "endek": 7721,
      "ısız": 7722,
      "Gazet": 7723,
      "suy": 7724,
      "olmaktadır": 7725,
      "akade": 7726,
      "buk": 7727,
      "herkesin": 7728,
      "lığının": 7729,
      "önceden": 7730,
      "trafik": 7731,
      "yapılmış": 7732,
      "duruş": 7733,
      "zamanlarda": 7734,
      "hazırlanan": 7735,
      "Ekon": 7736,
      "zir": 7737,
      "saha": 7738,
      "oldukları": 7739,
      "çekti": 7740,
      "ork": 7741,
      "memiş": 7742,
      "soğuk": 7743,
      "kendisi": 7744,
      "Yas": 7745,
      "Film": 7746,
      "ınar": 7747,
      "gözaltına": 7748,
      "Yıldırım": 7749,
      "amik": 7750,
      "dava": 7751,
      "eve": 7752,
      "açılış": 7753,
      "ate": 7754,
      "lezzet": 7755,
      "kurtul": 7756,
      "kurulan": 7757,
      "lamalar": 7758,
      "sunul": 7759,
      "olduğumuz": 7760,
      "UN": 7761,
      "Yol": 7762,
      "Hüs": 7763,
      "wit": 7764,
      "yapabilirsiniz": 7765,
      "olduğundan": 7766,
      "Met": 7767,
      "Ekonom": 7768,
      "Kuzey": 7769,
      "tüp": 7770,
      "tarak": 7771,
      "kod": 7772,
      "mede": 7773,
      "Kurum": 7774,
      "Adana": 7775,
      "farklılık": 7776,
      "maden": 7777,
      "amız": 7778,
      "lamaya": 7779,
      "tıp": 7780,
      "kısıt": 7781,
      "Zira": 7782,
      "edebil": 7783,
      "yıllar": 7784,
      "hassas": 7785,
      "Mahkem": 7786,
      "İşlem": 7787,
      "talık": 7788,
      "Hasan": 7789,
      "TO": 7790,
      "bölge": 7791,
      "yaklaşım": 7792,
      "verecek": 7793,
      "nan": 7794,
      "edebi": 7795,
      "duyar": 7796,
      "kaya": 7797,
      "düşünüyorum": 7798,
      "emen": 7799,
      "şer": 7800,
      "aktiv": 7801,
      "bitk": 7802,
      "Piya": 7803,
      "şampiyon": 7804,
      "cılığı": 7805,
      "eks": 7806,
      "Benim": 7807,
      "zi": 7808,
      "Gerçek": 7809,
      "osta": 7810,
      "ödem": 7811,
      "ağaç": 7812,
      "kişiye": 7813,
      "etki": 7814,
      "süren": 7815,
      "Taş": 7816,
      "aracılığıyla": 7817,
      "kullanılır": 7818,
      "televizyon": 7819,
      "lenmiş": 7820,
      "leriniz": 7821,
      "yukarı": 7822,
      "sof": 7823,
      "TS": 7824,
      "süreçte": 7825,
      "yöntemi": 7826,
      "hisset": 7827,
      "dizi": 7828,
      "Süper": 7829,
      "Win": 7830,
      "sayede": 7831,
      "resim": 7832,
      "ndan": 7833,
      "IM": 7834,
      "cılığ": 7835,
      "Le": 7836,
      "belirtildi": 7837,
      "uygulaması": 7838,
      "ob": 7839,
      "yaşadığı": 7840,
      "onlara": 7841,
      "mur": 7842,
      "öncelikle": 7843,
      "2012": 7844,
      "etraf": 7845,
      "Dolayısıyla": 7846,
      "Hastanesi": 7847,
      "vadeli": 7848,
      "Şehir": 7849,
      "kaydetti": 7850,
      "andar": 7851,
      "düm": 7852,
      "parçası": 7853,
      "siyonu": 7854,
      "ordu": 7855,
      "harika": 7856,
      "dra": 7857,
      "36": 7858,
      "değin": 7859,
      "Kısa": 7860,
      "Nur": 7861,
      "Sarı": 7862,
      "istedik": 7863,
      "lardaki": 7864,
      "rahatsız": 7865,
      "ayla": 7866,
      "erv": 7867,
      "yıp": 7868,
      "ast": 7869,
      "dolayısıyla": 7870,
      "pozit": 7871,
      "yönetic": 7872,
      "okulu": 7873,
      "konuşan": 7874,
      "yaşında": 7875,
      "imin": 7876,
      "nem": 7877,
      "kurulu": 7878,
      "vakit": 7879,
      "allah": 7880,
      "adr": 7881,
      "çatış": 7882,
      "uzu": 7883,
      "bayr": 7884,
      "atın": 7885,
      "haft": 7886,
      "mezun": 7887,
      "bağlan": 7888,
      "Bütün": 7889,
      "taşıyan": 7890,
      "gelin": 7891,
      "gündeme": 7892,
      "avukat": 7893,
      "bilgilendir": 7894,
      "esin": 7895,
      "malısınız": 7896,
      "açıdan": 7897,
      "bölümünde": 7898,
      "uyarı": 7899,
      "İngilizce": 7900,
      "uyan": 7901,
      "sorumluluk": 7902,
      "çağrı": 7903,
      "luluğ": 7904,
      "liliği": 7905,
      "rad": 7906,
      "modeli": 7907,
      "Gö": 7908,
      "istiyorsanız": 7909,
      "Birleş": 7910,
      "şeker": 7911,
      "güçlendir": 7912,
      "ata": 7913,
      "Cumhurbaşkan": 7914,
      "ekib": 7915,
      "yapabilir": 7916,
      "Br": 7917,
      "lerimizin": 7918,
      "kıl": 7919,
      "dığına": 7920,
      "sabit": 7921,
      "demi": 7922,
      "mediği": 7923,
      "Ch": 7924,
      "mahkem": 7925,
      "kesi": 7926,
      "Müş": 7927,
      "ire": 7928,
      "muhal": 7929,
      "kimse": 7930,
      "Des": 7931,
      "belirtilen": 7932,
      "geçiş": 7933,
      "Güvenlik": 7934,
      "zu": 7935,
      "sakin": 7936,
      "Mic": 7937,
      "ğan": 7938,
      "akl": 7939,
      "sürecinde": 7940,
      "IL": 7941,
      "dokun": 7942,
      "sunan": 7943,
      "alak": 7944,
      "dey": 7945,
      "üyüş": 7946,
      "Zaman": 7947,
      "konuşma": 7948,
      "metre": 7949,
      "Bununla": 7950,
      "kalın": 7951,
      "saygı": 7952,
      "300": 7953,
      "durumlarda": 7954,
      "teşkil": 7955,
      "içindeki": 7956,
      "sohbet": 7957,
      "bakımından": 7958,
      "32": 7959,
      "sorunun": 7960,
      "yiye": 7961,
      "TR": 7962,
      "Yu": 7963,
      "iyim": 7964,
      "ene": 7965,
      "kolayca": 7966,
      "sipariş": 7967,
      "ong": 7968,
      "melidir": 7969,
      "IS": 7970,
      "uğraş": 7971,
      "bahar": 7972,
      "Tarım": 7973,
      "yerli": 7974,
      "aca": 7975,
      "ışma": 7976,
      "Sah": 7977,
      "ölçüde": 7978,
      "Odası": 7979,
      "sebebiyle": 7980,
      "34": 7981,
      "İZ": 7982,
      "Arap": 7983,
      "geçer": 7984,
      "Üç": 7985,
      "olas": 7986,
      "koruma": 7987,
      "teşvik": 7988,
      "ahtar": 7989,
      "Hava": 7990,
      "ilişkiler": 7991,
      "nün": 7992,
      "bilmesi": 7993,
      "teri": 7994,
      "cüm": 7995,
      "finans": 7996,
      "sarı": 7997,
      "Siya": 7998,
      "Artık": 7999,
      "liyoruz": 8000,
      "özen": 8001,
      "Apple": 8002,
      "istin": 8003,
      "alarından": 8004,
      "Aslında": 8005,
      "Feder": 8006,
      "maddi": 8007,
      "çalıştır": 8008,
      "sorunları": 8009,
      "dönüşüm": 8010,
      "çiçek": 8011,
      "sonuna": 8012,
      "isiz": 8013,
      "bölgesinde": 8014,
      "ruf": 8015,
      "direk": 8016,
      "dünyaya": 8017,
      "bekliyor": 8018,
      "kök": 8019,
      "şarkı": 8020,
      "ayrıl": 8021,
      "kaçır": 8022,
      "larım": 8023,
      "bilinç": 8024,
      "görüşmeler": 8025,
      "ederim": 8026,
      "itibariyle": 8027,
      "çesi": 8028,
      "dun": 8029,
      "gah": 8030,
      "görünüm": 8031,
      "rast": 8032,
      "birden": 8033,
      "karşıya": 8034,
      "siyah": 8035,
      "uyucu": 8036,
      "mül": 8037,
      "sinyal": 8038,
      "kendilerine": 8039,
      "sağlam": 8040,
      "vitam": 8041,
      "bayram": 8042,
      "üstün": 8043,
      "dukları": 8044,
      "2011": 8045,
      "kanun": 8046,
      "Hatta": 8047,
      "modelleri": 8048,
      "eyecek": 8049,
      "istiyoruz": 8050,
      "biridir": 8051,
      "çalışmada": 8052,
      "yağı": 8053,
      "korku": 8054,
      "plak": 8055,
      "dolaş": 8056,
      "yolcu": 8057,
      "demokras": 8058,
      "ğı": 8059,
      "kavuş": 8060,
      "organizasyon": 8061,
      "kilomet": 8062,
      "rem": 8063,
      "Eş": 8064,
      "parça": 8065,
      "Van": 8066,
      "kek": 8067,
      "maktan": 8068,
      "müdahale": 8069,
      "taraftar": 8070,
      "distan": 8071,
      "bom": 8072,
      "leyic": 8073,
      "qu": 8074,
      "isyonu": 8075,
      "edildiği": 8076,
      "Ana": 8077,
      "sahn": 8078,
      "rin": 8079,
      "üniversite": 8080,
      "55": 8081,
      "Tah": 8082,
      "geldiği": 8083,
      "gulama": 8084,
      "artan": 8085,
      "Öte": 8086,
      "söylüyor": 8087,
      "bozuk": 8088,
      "ayasa": 8089,
      "işçi": 8090,
      "barış": 8091,
      "salon": 8092,
      "ağırlık": 8093,
      "gelmiş": 8094,
      "erişim": 8095,
      "yetenek": 8096,
      "iade": 8097,
      "müdahal": 8098,
      "yenilik": 8099,
      "duğumuz": 8100,
      "taşım": 8101,
      "bür": 8102,
      "kanser": 8103,
      "Jap": 8104,
      "Diyar": 8105,
      "İbrahim": 8106,
      "Mac": 8107,
      "projesi": 8108,
      "attı": 8109,
      "oranında": 8110,
      "mos": 8111,
      "sektöründe": 8112,
      "yasa": 8113,
      "diklerini": 8114,
      "ülkeler": 8115,
      "bulunur": 8116,
      "HA": 8117,
      "lığında": 8118,
      "Amerikan": 8119,
      "İT": 8120,
      "tadır": 8121,
      "itesi": 8122,
      "fiziksel": 8123,
      "insanları": 8124,
      "geleneksel": 8125,
      "üyeleri": 8126,
      "kazanmak": 8127,
      "abı": 8128,
      "adını": 8129,
      "ömür": 8130,
      "Euro": 8131,
      "eral": 8132,
      "genin": 8133,
      "başlıyor": 8134,
      "Sultan": 8135,
      "yarg": 8136,
      "udi": 8137,
      "yoluyla": 8138,
      "Po": 8139,
      "UL": 8140,
      "karşılan": 8141,
      "oker": 8142,
      "luluğu": 8143,
      "Pan": 8144,
      "saf": 8145,
      "Ürün": 8146,
      "idi": 8147,
      "kullanan": 8148,
      "şirketi": 8149,
      "tiğimiz": 8150,
      "iken": 8151,
      "elektronik": 8152,
      "günümüz": 8153,
      "bilgiye": 8154,
      "besin": 8155,
      "aklı": 8156,
      "lendi": 8157,
      "Elek": 8158,
      "dows": 8159,
      "vermeye": 8160,
      "sanayi": 8161,
      "lemeye": 8162,
      "ulusal": 8163,
      "olmalı": 8164,
      "Hüseyin": 8165,
      "sevk": 8166,
      "Çek": 8167,
      "rakip": 8168,
      "droid": 8169,
      "kaçın": 8170,
      "otobüs": 8171,
      "gili": 8172,
      "mikro": 8173,
      "Te": 8174,
      "edilebilir": 8175,
      "Ge": 8176,
      "maaş": 8177,
      "hayatı": 8178,
      "alabilirsiniz": 8179,
      "Fer": 8180,
      "bugüne": 8181,
      "başlayacak": 8182,
      "masın": 8183,
      "şöyle": 8184,
      "gösterir": 8185,
      "Fakültesi": 8186,
      "adlandır": 8187,
      "İm": 8188,
      "Dil": 8189,
      "esef": 8190,
      "Tam": 8191,
      "seyir": 8192,
      "medik": 8193,
      "zorunlu": 8194,
      "vı": 8195,
      "ulmuş": 8196,
      "bölümü": 8197,
      "orman": 8198,
      "Hayat": 8199,
      "layacak": 8200,
      "yargı": 8201,
      "galib": 8202,
      "dini": 8203,
      "besi": 8204,
      "CE": 8205,
      "olacağı": 8206,
      "bileceği": 8207,
      "Rama": 8208,
      "Çar": 8209,
      "sergil": 8210,
      "olmalıdır": 8211,
      "ayna": 8212,
      "düşünül": 8213,
      "likleri": 8214,
      "ordin": 8215,
      "48": 8216,
      "33": 8217,
      "memiz": 8218,
      "gerektiği": 8219,
      "kartı": 8220,
      "salg": 8221,
      "Bunlar": 8222,
      "olanlar": 8223,
      "iyiz": 8224,
      "petrol": 8225,
      "tad": 8226,
      "Cumhuriyeti": 8227,
      "yaptıkları": 8228,
      "andarma": 8229,
      "sebebi": 8230,
      "amaçlı": 8231,
      "lanacak": 8232,
      "Düş": 8233,
      "MA": 8234,
      "ülkemizde": 8235,
      "oyunun": 8236,
      "hediye": 8237,
      "atık": 8238,
      "Ceza": 8239,
      "HDP": 8240,
      "kendilerini": 8241,
      "undaki": 8242,
      "birleştir": 8243,
      "grubu": 8244,
      "okun": 8245,
      "aran": 8246,
      "sonuçlar": 8247,
      "Gençlik": 8248,
      "sonuçları": 8249,
      "açılan": 8250,
      "abiliyor": 8251,
      "Tas": 8252,
      "stil": 8253,
      "belediy": 8254,
      "Hiç": 8255,
      "Vatan": 8256,
      "lit": 8257,
      "Diyarbakır": 8258,
      "bulmak": 8259,
      "gösterdi": 8260,
      "yaşaya": 8261,
      "verim": 8262,
      "ebe": 8263,
      "fabrik": 8264,
      "liyet": 8265,
      "dağı": 8266,
      "boya": 8267,
      "emiş": 8268,
      "yangın": 8269,
      "eğin": 8270,
      "fatur": 8271,
      "diyet": 8272,
      "biçim": 8273,
      "bilimsel": 8274,
      "Yo": 8275,
      "yakından": 8276,
      "yüzey": 8277,
      "Hep": 8278,
      "maların": 8279,
      "düzeyde": 8280,
      "baba": 8281,
      "dönemi": 8282,
      "alıdır": 8283,
      "böylece": 8284,
      "gulan": 8285,
      "ekibi": 8286,
      "bağlam": 8287,
      "Müslüman": 8288,
      "Muh": 8289,
      "coğraf": 8290,
      "Du": 8291,
      "kaynağı": 8292,
      "ayn": 8293,
      "istihdam": 8294,
      "konuk": 8295,
      "aşk": 8296,
      "lamaz": 8297,
      "Evet": 8298,
      "siyet": 8299,
      "Phone": 8300,
      "tepk": 8301,
      "antep": 8302,
      "üretimi": 8303,
      "SE": 8304,
      "ation": 8305,
      "Öl": 8306,
      "düşman": 8307,
      "dalg": 8308,
      "görünt": 8309,
      "Kaymakam": 8310,
      "Güzel": 8311,
      "buz": 8312,
      "vermiş": 8313,
      "istek": 8314,
      "Sır": 8315,
      "mensu": 8316,
      "kun": 8317,
      "ry": 8318,
      "kulak": 8319,
      "tasarruf": 8320,
      "paylaşım": 8321,
      "kamp": 8322,
      "hasar": 8323,
      "bekleniyor": 8324,
      "önümüzdeki": 8325,
      "Şen": 8326,
      "Ermen": 8327,
      "manıza": 8328,
      "Abd": 8329,
      "toz": 8330,
      "400": 8331,
      "FET": 8332,
      "kok": 8333,
      "Vali": 8334,
      "adeta": 8335,
      "ator": 8336,
      "Ot": 8337,
      "meyin": 8338,
      "Yen": 8339,
      "New": 8340,
      "Str": 8341,
      "işlev": 8342,
      "şüph": 8343,
      "ilerden": 8344,
      "Hin": 8345,
      "sağlığı": 8346,
      "olduklarını": 8347,
      "istediği": 8348,
      "ord": 8349,
      "bilmektedir": 8350,
      "BB": 8351,
      "bö": 8352,
      "ümüş": 8353,
      "kurumsal": 8354,
      "cm": 8355,
      "Bek": 8356,
      "barındır": 8357,
      "Sar": 8358,
      "hücr": 8359,
      "landığı": 8360,
      "GB": 8361,
      "lüt": 8362,
      "bölümde": 8363,
      "Fransız": 8364,
      "rezerv": 8365,
      "nesil": 8366,
      "Kiş": 8367,
      "işletmeler": 8368,
      "alınarak": 8369,
      "öncesinde": 8370,
      "danışman": 8371,
      "44": 8372,
      "bileş": 8373,
      "Ramazan": 8374,
      "yatak": 8375,
      "ğinden": 8376,
      "Tat": 8377,
      "Mey": 8378,
      "işkin": 8379,
      "tablo": 8380,
      "borsa": 8381,
      "ilişki": 8382,
      "imizden": 8383,
      "ideal": 8384,
      "Trum": 8385,
      "Çalışma": 8386,
      "ismi": 8387,
      "lacak": 8388,
      "lamış": 8389,
      "tatlı": 8390,
      "Akdeniz": 8391,
      "taleb": 8392,
      "aşağıdaki": 8393,
      "rekabet": 8394,
      "geleri": 8395,
      "cıların": 8396,
      "lerimize": 8397,
      "eriş": 8398,
      "leyecek": 8399,
      "santr": 8400,
      "başlangıç": 8401,
      "birinin": 8402,
      "gelişmiş": 8403,
      "CO": 8404,
      "Boz": 8405,
      "Rü": 8406,
      "kolaylaştır": 8407,
      "Gaziantep": 8408,
      "yayınlanan": 8409,
      "rej": 8410,
      "huku": 8411,
      "mümkündür": 8412,
      "büyüme": 8413,
      "şallah": 8414,
      "ulur": 8415,
      "Malat": 8416,
      "görevi": 8417,
      "hır": 8418,
      "makal": 8419,
      "Ukr": 8420,
      "vatandaşlar": 8421,
      "seviye": 8422,
      "Şahin": 8423,
      "Sonra": 8424,
      "ilerde": 8425,
      "indirim": 8426,
      "IŞ": 8427,
      "2010": 8428,
      "aralık": 8429,
      "miktarda": 8430,
      "filmi": 8431,
      "Elektr": 8432,
      "takv": 8433,
      "seçenekleri": 8434,
      "kadınların": 8435,
      "süs": 8436,
      "umut": 8437,
      "keme": 8438,
      "girdi": 8439,
      "reh": 8440,
      "lıklar": 8441,
      "belirlenen": 8442,
      "Mut": 8443,
      "maruz": 8444,
      "38": 8445,
      "tıcı": 8446,
      "yım": 8447,
      "yn": 8448,
      "lanarak": 8449,
      "ıldığında": 8450,
      "endü": 8451,
      "ülmesi": 8452,
      "stat": 8453,
      "olası": 8454,
      "Trump": 8455,
      "mağdur": 8456,
      "alanları": 8457,
      "kimlik": 8458,
      "Tu": 8459,
      "ünüyor": 8460,
      "bulabilirsiniz": 8461,
      "Hüküm": 8462,
      "ze": 8463,
      "işlemler": 8464,
      "Şampiyon": 8465,
      "anet": 8466,
      "olduğunuz": 8467,
      "bütç": 8468,
      "kanıt": 8469,
      "sınırlı": 8470,
      "ıntılı": 8471,
      "çey": 8472,
      "ulaştır": 8473,
      "urum": 8474,
      "Windows": 8475,
      "meyecek": 8476,
      "vası": 8477,
      "takdirde": 8478,
      "Bilim": 8479,
      "celi": 8480,
      "gördüğ": 8481,
      "menizi": 8482,
      "edilmektedir": 8483,
      "gizli": 8484,
      "ettiğimiz": 8485,
      "To": 8486,
      "anlatan": 8487,
      "İdar": 8488,
      "korumak": 8489,
      "tarihleri": 8490,
      "zeme": 8491,
      "acil": 8492,
      "gazetec": 8493,
      "ding": 8494,
      "imen": 8495,
      "çocuğun": 8496,
      "melisiniz": 8497,
      "ilmez": 8498,
      "şem": 8499,
      "yönde": 8500,
      "İd": 8501,
      "enflasyon": 8502,
      "Demok": 8503,
      "FETÖ": 8504,
      "Balık": 8505,
      "konak": 8506,
      "zorluk": 8507,
      "kaş": 8508,
      "Göl": 8509,
      "geleceğ": 8510,
      "Polis": 8511,
      "yılından": 8512,
      "Kocaeli": 8513,
      "hayr": 8514,
      "deprem": 8515,
      "İŞ": 8516,
      "jinal": 8517,
      "ırlar": 8518,
      "Bundan": 8519,
      "alması": 8520,
      "ortamda": 8521,
      "Selçuk": 8522,
      "uzat": 8523,
      "yenilen": 8524,
      "komisyon": 8525,
      "önemi": 8526,
      "düşen": 8527,
      "yürüyüş": 8528,
      "FA": 8529,
      "Geçen": 8530,
      "Ex": 8531,
      "kahve": 8532,
      "Yıldız": 8533,
      "pratik": 8534,
      "hum": 8535,
      "hali": 8536,
      "Yönet": 8537,
      "üldü": 8538,
      "lerindeki": 8539,
      "tacak": 8540,
      "günümüzde": 8541,
      "hatırla": 8542,
      "hor": 8543,
      "maçı": 8544,
      "önde": 8545,
      "anında": 8546,
      "Günü": 8547,
      "yapıldığı": 8548,
      "yetiş": 8549,
      "Güneş": 8550,
      "tanış": 8551,
      "pt": 8552,
      "yalan": 8553,
      "anlamlı": 8554,
      "hesabı": 8555,
      "fonk": 8556,
      "muhtemel": 8557,
      "ulaşım": 8558,
      "şaşır": 8559,
      "anahtar": 8560,
      "kalk": 8561,
      "saatlerinde": 8562,
      "Android": 8563,
      "port": 8564,
      "tıkları": 8565,
      "mor": 8566,
      "afer": 8567,
      "ığa": 8568,
      "uygulanan": 8569,
      "gerçekleşen": 8570,
      "Of": 8571,
      "Şube": 8572,
      "potansiyel": 8573,
      "übü": 8574,
      "bünyesinde": 8575,
      "Yeşil": 8576,
      "darbe": 8577,
      "Ömer": 8578,
      "geril": 8579,
      "işgal": 8580,
      "yapımı": 8581,
      "tit": 8582,
      "ılma": 8583,
      "Grup": 8584,
      "verimli": 8585,
      "Tıp": 8586,
      "bireysel": 8587,
      "gerekç": 8588,
      "çıkart": 8589,
      "süredir": 8590,
      "deri": 8591,
      "dakikada": 8592,
      "sermaye": 8593,
      "Malatya": 8594,
      "metrek": 8595,
      "antren": 8596,
      "ayıp": 8597,
      "çalışmalarını": 8598,
      "ıyorlar": 8599,
      "şap": 8600,
      "ithal": 8601,
      "Ener": 8602,
      "izlen": 8603,
      "niteli": 8604,
      "müsa": 8605,
      "ektörü": 8606,
      "altını": 8607,
      "komp": 8608,
      "Mersin": 8609,
      "savunma": 8610,
      "leyman": 8611,
      "bulunma": 8612,
      "tokol": 8613,
      "rim": 8614,
      "Sig": 8615,
      "benzeri": 8616,
      "kazanan": 8617,
      "görünüyor": 8618,
      "Bahç": 8619,
      "edek": 8620,
      "kalma": 8621,
      "heyecan": 8622,
      "dekor": 8623,
      "ılıp": 8624,
      "tein": 8625,
      "emesi": 8626,
      "laşık": 8627,
      "halkın": 8628,
      "sporcu": 8629,
      "kulüp": 8630,
      "yumuş": 8631,
      "nefes": 8632,
      "37": 8633,
      "emeye": 8634,
      "osu": 8635,
      "Süleyman": 8636,
      "kullanılabilir": 8637,
      "Sek": 8638,
      "birbirinden": 8639,
      "Ligi": 8640,
      "duruma": 8641,
      "dayalı": 8642,
      "esiz": 8643,
      "sistemleri": 8644,
      "başlaya": 8645,
      "maş": 8646,
      "yapılmıştır": 8647,
      "KO": 8648,
      "değişken": 8649,
      "bedel": 8650,
      "belgeler": 8651,
      "Birçok": 8652,
      "Gru": 8653,
      "civarında": 8654,
      "Fark": 8655,
      "alesef": 8656,
      "pah": 8657,
      "posta": 8658,
      "Futbol": 8659,
      "kısım": 8660,
      "kenar": 8661,
      "mm": 8662,
      "Toplantı": 8663,
      "masyon": 8664,
      "eter": 8665,
      "İD": 8666,
      "197": 8667,
      "oynan": 8668,
      "ilginç": 8669,
      "oranda": 8670,
      "ılmaktadır": 8671,
      "maktır": 8672,
      "Çelik": 8673,
      "sos": 8674,
      "Kamu": 8675,
      "kadınlar": 8676,
      "duğunuz": 8677,
      "ılmasına": 8678,
      "kahraman": 8679,
      "mevcuttur": 8680,
      "Beyaz": 8681,
      "göstermektedir": 8682,
      "ameliyat": 8683,
      "kabı": 8684,
      "Fır": 8685,
      "ente": 8686,
      "Bölg": 8687,
      "Olay": 8688,
      "Öğretmen": 8689,
      "39": 8690,
      "Ok": 8691,
      "Karadeniz": 8692,
      "rama": 8693,
      "Para": 8694,
      "alandır": 8695,
      "esnasında": 8696,
      "koronavirüs": 8697,
      "ai": 8698,
      "yüzünden": 8699,
      "Yurt": 8700,
      "şef": 8701,
      "iPhone": 8702,
      "memesi": 8703,
      "birini": 8704,
      "çıkacak": 8705,
      "Çağ": 8706,
      "fan": 8707,
      "Lo": 8708,
      "Turizm": 8709,
      "iyileştir": 8710,
      "gördük": 8711,
      "kullanıla": 8712,
      "mimar": 8713,
      "oynad": 8714,
      "Kent": 8715,
      "AV": 8716,
      "sorunlar": 8717,
      "takımı": 8718,
      "renkli": 8719,
      "dığından": 8720,
      "yaşadık": 8721,
      "meyve": 8722,
      "evinde": 8723,
      "demektir": 8724,
      "yitir": 8725,
      "sinin": 8726,
      "we": 8727,
      "emeği": 8728,
      "yarın": 8729,
      "Med": 8730,
      "Sp": 8731,
      "işbirliği": 8732,
      "uygulamaları": 8733,
      "sıfır": 8734,
      "bez": 8735,
      "lerken": 8736,
      "Mısır": 8737,
      "maddes": 8738,
      "ron": 8739,
      "üb": 8740,
      "site": 8741,
      "mahall": 8742,
      "SP": 8743,
      "terap": 8744,
      "kıymet": 8745,
      "iyan": 8746,
      "sizler": 8747,
      "edeceğiz": 8748,
      "pişir": 8749,
      "zek": 8750,
      "adayı": 8751,
      "ürünlerin": 8752,
      "final": 8753,
      "ğer": 8754,
      "ME": 8755,
      "kli": 8756,
      "buradan": 8757,
      "kullandığı": 8758,
      "beklenen": 8759,
      "üretic": 8760,
      "serg": 8761,
      "sıkı": 8762,
      "Ulusal": 8763,
      "ildiğini": 8764,
      "Dışişleri": 8765,
      "devletin": 8766,
      "kullanılarak": 8767,
      "Ukrayna": 8768,
      "Ordu": 8769,
      "Web": 8770,
      "Mon": 8771,
      "vs": 8772,
      "Geçtiğimiz": 8773,
      "vererek": 8774,
      "tifak": 8775,
      "pozitif": 8776,
      "köş": 8777,
      "emizin": 8778,
      "boyu": 8779,
      "hid": 8780,
      "Cuma": 8781,
      "bebeğ": 8782,
      "şun": 8783,
      "Onun": 8784,
      "Aç": 8785,
      "tuz": 8786,
      "teşem": 8787,
      "hepsi": 8788,
      "yiyecek": 8789,
      "Dok": 8790,
      "Sez": 8791,
      "La": 8792,
      "Sil": 8793,
      "makla": 8794,
      "hapis": 8795,
      "Orman": 8796,
      "sunulan": 8797,
      "seyi": 8798,
      "iyorlar": 8799,
      "Pat": 8800,
      "üstünde": 8801,
      "mali": 8802,
      "IK": 8803,
      "layıcı": 8804,
      "Tun": 8805,
      "acağına": 8806,
      "yıllardır": 8807,
      "Gerek": 8808,
      "köpr": 8809,
      "teyiz": 8810,
      "öncelik": 8811,
      "book": 8812,
      "yıla": 8813,
      "Mark": 8814,
      "150": 8815,
      "Öncelikle": 8816,
      "Ale": 8817,
      "Arka": 8818,
      "Aile": 8819,
      "öm": 8820,
      "tedavisi": 8821,
      "birer": 8822,
      "alanlarda": 8823,
      "Bi": 8824,
      "vermektedir": 8825,
      "yaları": 8826,
      "Car": 8827,
      "ilave": 8828,
      "kullanma": 8829,
      "olama": 8830,
      "kaybetti": 8831,
      "yükselt": 8832,
      "cinsel": 8833,
      "Pek": 8834,
      "hastalığı": 8835,
      "uyoruz": 8836,
      "Oğ": 8837,
      "lerdeki": 8838,
      "kayded": 8839,
      "alya": 8840,
      "öğrenildi": 8841,
      "yönlü": 8842,
      "zev": 8843,
      "çekici": 8844,
      "Çanak": 8845,
      "ılmasını": 8846,
      "konfor": 8847,
      "Net": 8848,
      "akış": 8849,
      "klasik": 8850,
      "los": 8851,
      "ity": 8852,
      "getirmek": 8853,
      "birleş": 8854,
      "düzelt": 8855,
      "kenti": 8856,
      "Trabzonspor": 8857,
      "enler": 8858,
      "Dünyanın": 8859,
      "alarla": 8860,
      "İtalya": 8861,
      "keşf": 8862,
      "ıldığını": 8863,
      "Fiyat": 8864,
      "kırı": 8865,
      "dından": 8866,
      "satım": 8867,
      "dikkatli": 8868,
      "99": 8869,
      "Ya": 8870,
      "Kil": 8871,
      "elbette": 8872,
      "İşlet": 8873,
      "piyasasında": 8874,
      "bahis": 8875,
      "sinir": 8876,
      "rest": 8877,
      "landa": 8878,
      "olduğunda": 8879,
      "adalet": 8880,
      "Sakar": 8881,
      "anket": 8882,
      "Yunanistan": 8883,
      "mühendis": 8884,
      "endiş": 8885,
      "harek": 8886,
      "kıyafet": 8887,
      "şiş": 8888,
      "İsmail": 8889,
      "elinde": 8890,
      "temizlik": 8891,
      "metin": 8892,
      "bulan": 8893,
      "sürücü": 8894,
      "gurur": 8895,
      "kadem": 8896,
      "Kart": 8897,
      "maçta": 8898,
      "Park": 8899,
      "Savaş": 8900,
      "Fi": 8901,
      "verg": 8902,
      "yaşadığ": 8903,
      "yerden": 8904,
      "iyel": 8905,
      "USD": 8906,
      "yakıt": 8907,
      "Mem": 8908,
      "forma": 8909,
      "Yav": 8910,
      "malarına": 8911,
      "aralarında": 8912,
      "zamanı": 8913,
      "karşılığ": 8914,
      "oyunc": 8915,
      "çalışmaya": 8916,
      "incisi": 8917,
      "avul": 8918,
      "aban": 8919,
      "Fin": 8920,
      "Am": 8921,
      "çal": 8922,
      "2008": 8923,
      "Kurumu": 8924,
      "Ada": 8925,
      "alıcı": 8926,
      "Gar": 8927,
      "ihtimal": 8928,
      "lenir": 8929,
      "robot": 8930,
      "uğra": 8931,
      "yaşlı": 8932,
      "Kendi": 8933,
      "günden": 8934,
      "th": 8935,
      "leyip": 8936,
      "Tok": 8937,
      "etkileri": 8938,
      "gereği": 8939,
      "araçları": 8940,
      "uyumlu": 8941,
      "cezası": 8942,
      "görür": 8943,
      "daroğlu": 8944,
      "farkı": 8945,
      "stres": 8946,
      "Kanunu": 8947,
      "MS": 8948,
      "faydalı": 8949,
      "toplumun": 8950,
      "Kanun": 8951,
      "gerekse": 8952,
      "teor": 8953,
      "sürece": 8954,
      "senar": 8955,
      "tabak": 8956,
      "krem": 8957,
      "lav": 8958,
      "satışa": 8959,
      "ıf": 8960,
      "Otel": 8961,
      "lor": 8962,
      "paşa": 8963,
      "jen": 8964,
      "noktası": 8965,
      "örü": 8966,
      "Asya": 8967,
      "terk": 8968,
      "şirketin": 8969,
      "örgütü": 8970,
      "Çevre": 8971,
      "PS": 8972,
      "yürür": 8973,
      "ciğer": 8974,
      "metal": 8975,
      "usunu": 8976,
      "esir": 8977,
      "geldiğini": 8978,
      "malzeme": 8979,
      "yapılıyor": 8980,
      "harekete": 8981,
      "kalite": 8982,
      "piyasaya": 8983,
      "sunar": 8984,
      "2009": 8985,
      "harca": 8986,
      "yör": 8987,
      "kitabı": 8988,
      "Şanlı": 8989,
      "kurucu": 8990,
      "alışkan": 8991,
      "Fes": 8992,
      "karma": 8993,
      "Toplum": 8994,
      "kullanabilirsiniz": 8995,
      "liy": 8996,
      "temas": 8997,
      "şeyin": 8998,
      "kullanılması": 8999,
      "güne": 9000,
      "ümr": 9001,
      "kağıt": 9002,
      "stit": 9003,
      "ayol": 9004,
      "ısın": 9005,
      "olmaması": 9006,
      "dayanık": 9007,
      "analizi": 9008,
      "süreli": 9009,
      "sanal": 9010,
      "kariyer": 9011,
      "Günümüzde": 9012,
      "Don": 9013,
      "eğini": 9014,
      "birbirine": 9015,
      "çat": 9016,
      "yolculuğ": 9017,
      "ruk": 9018,
      "ism": 9019,
      "aşkın": 9020,
      "layıp": 9021,
      "kişehir": 9022,
      "belg": 9023,
      "kampan": 9024,
      "tival": 9025,
      "utu": 9026,
      "anları": 9027,
      "melerini": 9028,
      "etiyle": 9029,
      "okuma": 9030,
      "verilecek": 9031,
      "atistik": 9032,
      "Yok": 9033,
      "ag": 9034,
      "Fet": 9035,
      "Boğ": 9036,
      "kazandı": 9037,
      "oksi": 9038,
      "üretilen": 9039,
      "İt": 9040,
      "olağan": 9041,
      "tanıtım": 9042,
      "pey": 9043,
      "ekonomi": 9044,
      "ağa": 9045,
      "soruşturma": 9046,
      "bildirdi": 9047,
      "LAR": 9048,
      "Sivas": 9049,
      "gidiyor": 9050,
      "tiyat": 9051,
      "Un": 9052,
      "kahv": 9053,
      "lıkları": 9054,
      "Eskişehir": 9055,
      "Ren": 9056,
      "meydan": 9057,
      "kuzey": 9058,
      "gelmesi": 9059,
      "hakları": 9060,
      "ofis": 9061,
      "TBM": 9062,
      "Örgü": 9063,
      "uyku": 9064,
      "yolculuk": 9065,
      "anlama": 9066,
      "vatandaşların": 9067,
      "Oto": 9068,
      "geçici": 9069,
      "verilmesi": 9070,
      "halkı": 9071,
      "2000": 9072,
      "ref": 9073,
      "aral": 9074,
      "konser": 9075,
      "rit": 9076,
      "Ardından": 9077,
      "buraya": 9078,
      "Sin": 9079,
      "gari": 9080,
      "çalışmanın": 9081,
      "Meslek": 9082,
      "Sey": 9083,
      "kriter": 9084,
      "Sakarya": 9085,
      "pencer": 9086,
      "oynaya": 9087,
      "haberleri": 9088,
      "yaptığımız": 9089,
      "çizg": 9090,
      "görüyoruz": 9091,
      "maçında": 9092,
      "alb": 9093,
      "Uzman": 9094,
      "www": 9095,
      "Kir": 9096,
      "hekim": 9097,
      "yaşamak": 9098,
      "kanın": 9099,
      "Rum": 9100,
      "kalıcı": 9101,
      "usul": 9102,
      "kimyasal": 9103,
      "sanın": 9104,
      "Karşı": 9105,
      "iv": 9106,
      "Üyesi": 9107,
      "hip": 9108,
      "TBMM": 9109,
      "arab": 9110,
      "pazarlama": 9111,
      "emeyen": 9112,
      "Kılıçdaroğlu": 9113,
      "ayrıntı": 9114,
      "herkese": 9115,
      "güvenliği": 9116,
      "arik": 9117,
      "Tor": 9118,
      "Yukar": 9119,
      "Din": 9120,
      "çalışmak": 9121,
      "eceğimiz": 9122,
      "karşımıza": 9123,
      "biliyoruz": 9124,
      "De": 9125,
      "mevsim": 9126,
      "kimi": 9127,
      "acağım": 9128,
      "projeler": 9129,
      "sertif": 9130,
      "ilerle": 9131,
      "Çanakkale": 9132,
      "lılığ": 9133,
      "edebiyat": 9134,
      "les": 9135,
      "ly": 9136,
      "bileti": 9137,
      "AA": 9138,
      "şahıs": 9139,
      "konularda": 9140,
      "Zaten": 9141,
      "Filistin": 9142,
      "ulaşabilirsiniz": 9143,
      "araj": 9144,
      "Afrika": 9145,
      "hük": 9146,
      "liyat": 9147,
      "günün": 9148,
      "donanım": 9149,
      "Plan": 9150,
      "tutum": 9151,
      "kaybı": 9152,
      "oluşturan": 9153,
      "witter": 9154,
      "Is": 9155,
      "katı": 9156,
      "sebz": 9157,
      "masraf": 9158,
      "ud": 9159,
      "yetersiz": 9160,
      "emekli": 9161,
      "insanı": 9162,
      "Serv": 9163,
      "kadının": 9164,
      "mahalle": 9165,
      "lemesi": 9166,
      "ilmesini": 9167,
      "sözleşme": 9168,
      "mensup": 9169,
      "Tabii": 9170,
      "sahib": 9171,
      "evren": 9172,
      "Teş": 9173,
      "değerlendirme": 9174,
      "işletme": 9175,
      "sebeple": 9176,
      "Mahkemesi": 9177,
      "Kitap": 9178,
      "itika": 9179,
      "hazırlan": 9180,
      "hazırla": 9181,
      "hata": 9182,
      "ufak": 9183,
      "gid": 9184,
      "espor": 9185,
      "halen": 9186,
      "Azer": 9187,
      "olabilirsiniz": 9188,
      "yılının": 9189,
      "gelmektedir": 9190,
      "trend": 9191,
      "!!": 9192,
      "tasarımı": 9193,
      "arkasında": 9194,
      "gerçekleşti": 9195,
      "tabii": 9196,
      "mutfak": 9197,
      "anlattı": 9198,
      "Bod": 9199,
      "çıkma": 9200,
      "noktasında": 9201,
      "insanlara": 9202,
      "Doğan": 9203,
      "yedi": 9204,
      "edilerek": 9205,
      "duyurdu": 9206,
      "bayan": 9207,
      "ığında": 9208,
      "leyebilir": 9209,
      "LER": 9210,
      "ülkelerin": 9211,
      "Kab": 9212,
      "araştırmalar": 9213,
      "mevzu": 9214,
      "Bavul": 9215,
      "cenaz": 9216,
      "Dağ": 9217,
      "Naz": 9218,
      "amaya": 9219,
      "Neden": 9220,
      "pres": 9221,
      "üzgar": 9222,
      "Bölge": 9223,
      "kusur": 9224,
      "Ege": 9225,
      "verilir": 9226,
      "araba": 9227,
      "emir": 9228,
      "babası": 9229,
      "çerçeve": 9230,
      "Ödül": 9231,
      "kitl": 9232,
      "dilek": 9233,
      "sisteminin": 9234,
      "fonksiyon": 9235,
      "galibiyet": 9236,
      "omuz": 9237,
      "evine": 9238,
      "Bunların": 9239,
      "kiralama": 9240,
      "cami": 9241,
      "meclis": 9242,
      "zat": 9243,
      "bileceğiniz": 9244,
      "içeriğ": 9245,
      "Far": 9246,
      "kınma": 9247,
      "yönetmen": 9248,
      "47": 9249,
      "çalışır": 9250,
      "mediğini": 9251,
      "zemin": 9252,
      "başk": 9253,
      "riyet": 9254,
      "ıyordu": 9255,
      "Huk": 9256,
      "Kü": 9257,
      "pe": 9258,
      "psikolojik": 9259,
      "Con": 9260,
      "yapmanız": 9261,
      "Şanlıur": 9262,
      "ikat": 9263,
      "Yayın": 9264,
      "ücreti": 9265,
      "seyr": 9266,
      "iklim": 9267,
      "Vol": 9268,
      "kurs": 9269,
      "ettiğiniz": 9270,
      "çekiyor": 9271,
      "lüğe": 9272,
      "sis": 9273,
      "cal": 9274,
      "bence": 9275,
      "lasman": 9276,
      "alimanı": 9277,
      "miyorum": 9278,
      "yönel": 9279,
      "ceğine": 9280,
      "amac": 9281,
      "söylemek": 9282,
      "Koç": 9283,
      "zeytin": 9284,
      "doku": 9285,
      "Sit": 9286,
      "orum": 9287,
      "yüküm": 9288,
      "denet": 9289,
      "bistan": 9290,
      "ilmesine": 9291,
      "genelde": 9292,
      "eşya": 9293,
      "ahh": 9294,
      "sunduğu": 9295,
      "itiraz": 9296,
      "BA": 9297,
      "tayız": 9298,
      "beli": 9299,
      "araz": 9300,
      "tamamlan": 9301,
      "iyice": 9302,
      "ihal": 9303,
      "05": 9304,
      "Cadde": 9305,
      "ayolu": 9306,
      "Kup": 9307,
      "fırsatı": 9308,
      "birine": 9309,
      "dışına": 9310,
      "Paz": 9311,
      "sası": 9312,
      "terörist": 9313,
      "telefonu": 9314,
      "etleri": 9315,
      "tiyatro": 9316,
      "amaçla": 9317,
      "durumun": 9318,
      "derecede": 9319,
      "kıyas": 9320,
      "çelik": 9321,
      "yolda": 9322,
      "ağız": 9323,
      "engelli": 9324,
      "GS": 9325,
      "pir": 9326,
      "46": 9327,
      "gitmek": 9328,
      "felse": 9329,
      "hn": 9330,
      "şirketleri": 9331,
      "gelip": 9332,
      "birimi": 9333,
      "mutluluk": 9334,
      "köpek": 9335,
      "Erz": 9336,
      "priz": 9337,
      "uşturucu": 9338,
      "ükle": 9339,
      ".)": 9340,
      "cası": 9341,
      "açıklamalarda": 9342,
      "yazık": 9343,
      "ayağ": 9344,
      "kapsamlı": 9345,
      "bisiklet": 9346,
      "protokol": 9347,
      "demokratik": 9348,
      "üstüne": 9349,
      "günler": 9350,
      "stra": 9351,
      "Çift": 9352,
      "beslenme": 9353,
      "yerlerde": 9354,
      "ertel": 9355,
      "ayakkabı": 9356,
      "olabilecek": 9357,
      "VE": 9358,
      "olmayı": 9359,
      "alabilir": 9360,
      "196": 9361,
      "turist": 9362,
      "alırken": 9363,
      "yarım": 9364,
      "Dep": 9365,
      "cumhur": 9366,
      "taşımak": 9367,
      "çalışmalarına": 9368,
      "lendirme": 9369,
      "yenil": 9370,
      "09": 9371,
      "ndeki": 9372,
      "buldu": 9373,
      "görülmektedir": 9374,
      "Azerbay": 9375,
      "yaşat": 9376,
      "Yah": 9377,
      "kaybeden": 9378,
      "netic": 9379,
      "Kredi": 9380,
      "muhteşem": 9381,
      "eğit": 9382,
      "Dair": 9383,
      "Kaya": 9384,
      "yara": 9385,
      "olat": 9386,
      "verileri": 9387,
      "koz": 9388,
      "çağır": 9389,
      "sendik": 9390,
      "Rap": 9391,
      "Cor": 9392,
      "alana": 9393,
      "lukla": 9394,
      "mesinden": 9395,
      "yapması": 9396,
      "oğu": 9397,
      "inceleme": 9398,
      "sayısının": 9399,
      "elendir": 9400,
      "yağmur": 9401,
      "ticareti": 9402,
      "yolunda": 9403,
      "Kav": 9404,
      "verme": 9405,
      "abilmek": 9406,
      "buğ": 9407,
      "2022": 9408,
      "ney": 9409,
      "sunmaktadır": 9410,
      "sana": 9411,
      "tale": 9412,
      "oluşturmak": 9413,
      "ÜN": 9414,
      "çıkara": 9415,
      "arasından": 9416,
      "bilgilere": 9417,
      "Ru": 9418,
      "ulacak": 9419,
      "yetkili": 9420,
      "Meclisi": 9421,
      "damar": 9422,
      "plana": 9423,
      "blog": 9424,
      "namaz": 9425,
      "parator": 9426,
      "miktarı": 9427,
      "hüc": 9428,
      "tavsiy": 9429,
      "merkezinde": 9430,
      "ediler": 9431,
      "kargo": 9432,
      "tüc": 9433,
      "Aj": 9434,
      "Doğru": 9435,
      "liam": 9436,
      "hayırlı": 9437,
      "kalem": 9438,
      "katılımcı": 9439,
      "isterseniz": 9440,
      "ebilmek": 9441,
      "Organ": 9442,
      "kere": 9443,
      "öğrencileri": 9444,
      "Lon": 9445,
      "ümrük": 9446,
      "aylarında": 9447,
      "dolarlık": 9448,
      "sıvı": 9449,
      "yken": 9450,
      "ahlak": 9451,
      "umartesi": 9452,
      "gördü": 9453,
      "Denizli": 9454,
      "Kayseri": 9455,
      "Tab": 9456,
      "yolları": 9457,
      "firması": 9458,
      "öğret": 9459,
      "üstlen": 9460,
      "kamera": 9461,
      "ID": 9462,
      "disip": 9463,
      "etkiler": 9464,
      "oluşum": 9465,
      "azından": 9466,
      "bağır": 9467,
      "market": 9468,
      "sızın": 9469,
      "verici": 9470,
      "karbon": 9471,
      "ps": 9472,
      "İkili": 9473,
      "muhalef": 9474,
      "01": 9475,
      "bölgeye": 9476,
      "Hakan": 9477,
      "emli": 9478,
      "Borsa": 9479,
      "minim": 9480,
      "doğr": 9481,
      "sigorta": 9482,
      "ürünün": 9483,
      "bilgisi": 9484,
      "sürüc": 9485,
      "dılar": 9486,
      "düzenleme": 9487,
      "Pas": 9488,
      "Bodrum": 9489,
      "düğün": 9490,
      "kazanma": 9491,
      "49": 9492,
      "hisar": 9493,
      "traf": 9494,
      "anız": 9495,
      "Gez": 9496,
      "öylelikle": 9497,
      "Birleşik": 9498,
      "Müdürlüğ": 9499,
      "devrim": 9500,
      "hayatta": 9501,
      "blok": 9502,
      "tipi": 9503,
      "alanına": 9504,
      "Hastan": 9505,
      "eji": 9506,
      "çın": 9507,
      "kapsamda": 9508,
      "unma": 9509,
      "şak": 9510,
      "yapılmaktadır": 9511,
      "yumur": 9512,
      "lerim": 9513,
      "tazmin": 9514,
      "Grubu": 9515,
      "Sı": 9516,
      "gidiş": 9517,
      "Gön": 9518,
      "doz": 9519,
      "egzer": 9520,
      "okur": 9521,
      "etken": 9522,
      "saniye": 9523,
      "leyebilirsiniz": 9524,
      "Aşağı": 9525,
      "platformu": 9526,
      "Bölgesi": 9527,
      "Adal": 9528,
      "\".": 9529,
      "kalmış": 9530,
      "gelmiştir": 9531,
      "keyifli": 9532,
      "lamayı": 9533,
      "slan": 9534,
      "çisi": 9535,
      "katıldığı": 9536,
      "yapmayı": 9537,
      "gecik": 9538,
      "alınır": 9539,
      "int": 9540,
      "rehber": 9541,
      "oyuna": 9542,
      "dinamik": 9543,
      "Enerji": 9544,
      "nef": 9545,
      "Fu": 9546,
      "kalab": 9547,
      "çocukları": 9548,
      "tarihli": 9549,
      "çevrim": 9550,
      "etmiştir": 9551,
      "Cov": 9552,
      "çekim": 9553,
      "ebiliyor": 9554,
      "ediğiniz": 9555,
      "diniz": 9556,
      "Barış": 9557,
      "cağınız": 9558,
      "halka": 9559,
      "katkıda": 9560,
      "Rüyada": 9561,
      "tma": 9562,
      "sayfa": 9563,
      "Anayasa": 9564,
      "Müca": 9565,
      "Karak": 9566,
      "bbi": 9567,
      "çeği": 9568,
      "memnuniyet": 9569,
      "yöneticiler": 9570,
      "ulaşmak": 9571,
      "karde": 9572,
      "Hes": 9573,
      "yılları": 9574,
      "lamen": 9575,
      "maddesi": 9576,
      "sektörü": 9577,
      "otik": 9578,
      "mektu": 9579,
      "sün": 9580,
      "ölçek": 9581,
      "Yağ": 9582,
      "bazıları": 9583,
      "unca": 9584,
      "lütfen": 9585,
      "ediğini": 9586,
      "İçin": 9587,
      "seni": 9588,
      "AC": 9589,
      "firmamız": 9590,
      "adamı": 9591,
      "şark": 9592,
      "Plat": 9593,
      "rekor": 9594,
      "Azerbaycan": 9595,
      "başlıklı": 9596,
      "dönemin": 9597,
      "işini": 9598,
      "kendinizi": 9599,
      "beyin": 9600,
      "testi": 9601,
      "kalır": 9602,
      "Yaklaşık": 9603,
      "nas": 9604,
      "görülüyor": 9605,
      "cağım": 9606,
      "istikrar": 9607,
      "Kİ": 9608,
      "Kahraman": 9609,
      "Sına": 9610,
      "aldım": 9611,
      "düşünce": 9612,
      "elle": 9613,
      "likler": 9614,
      "çıktığı": 9615,
      "lastik": 9616,
      "Emre": 9617,
      "Vakfı": 9618,
      "ekmek": 9619,
      "larınızın": 9620,
      "şarj": 9621,
      "kilit": 9622,
      "Pen": 9623,
      "seçeneği": 9624,
      "muştu": 9625,
      "geride": 9626,
      "karşın": 9627,
      "seçimi": 9628,
      "CD": 9629,
      "zincir": 9630,
      "soft": 9631,
      "sürük": 9632,
      "Jandarma": 9633,
      "Paşa": 9634,
      "Kulübü": 9635,
      "atu": 9636,
      "demo": 9637,
      "Abdullah": 9638,
      "piyasası": 9639,
      "olog": 9640,
      "rahatlıkla": 9641,
      "ilip": 9642,
      "sanay": 9643,
      "güney": 9644,
      "Bayramı": 9645,
      "gereksin": 9646,
      "özgürlük": 9647,
      "mantık": 9648,
      "Dar": 9649,
      "öğrenmek": 9650,
      "gelişme": 9651,
      "Emek": 9652,
      "lup": 9653,
      "yedek": 9654,
      "algı": 9655,
      "beslen": 9656,
      "ederiz": 9657,
      "öykü": 9658,
      "inanç": 9659,
      "tali": 9660,
      "endüstr": 9661,
      "taraftan": 9662,
      "cisi": 9663,
      "larken": 9664,
      "etmeniz": 9665,
      "Covid": 9666,
      "lobal": 9667,
      "maalesef": 9668,
      "husus": 9669,
      "tutul": 9670,
      "bulunması": 9671,
      "riski": 9672,
      "cüsü": 9673,
      "Hukuk": 9674,
      "som": 9675,
      "ende": 9676,
      "farkında": 9677,
      "evin": 9678,
      "ilçesi": 9679,
      "garant": 9680,
      "İmam": 9681,
      "laştırma": 9682,
      "gelerek": 9683,
      "yel": 9684,
      "sir": 9685,
      "bayrak": 9686,
      "bildirildi": 9687,
      "lideri": 9688,
      "diya": 9689,
      "isyen": 9690,
      "yeten": 9691,
      "kutu": 9692,
      "çıkması": 9693,
      "aracın": 9694,
      "bulgu": 9695,
      "kalitesi": 9696,
      "başlı": 9697,
      "yapıyoruz": 9698,
      "Destek": 9699,
      "vir": 9700,
      "bine": 9701,
      "nez": 9702,
      "42": 9703,
      "bağış": 9704,
      "Uğ": 9705,
      "Sabah": 9706,
      "Şehit": 9707,
      "koltuk": 9708,
      "yanına": 9709,
      "emniyet": 9710,
      "parlak": 9711,
      "çök": 9712,
      "Savaşı": 9713,
      "Araç": 9714,
      "olmaları": 9715,
      "sunum": 9716,
      "yağış": 9717,
      "öğrencilere": 9718,
      "eceğim": 9719,
      "kaynaklı": 9720,
      "kup": 9721,
      "servisi": 9722,
      "ion": 9723,
      "mamak": 9724,
      "Erzurum": 9725,
      "politika": 9726,
      "farkın": 9727,
      "ündeki": 9728,
      "Ac": 9729,
      "tedarik": 9730,
      "Belki": 9731,
      "gam": 9732,
      "bileceğini": 9733,
      "Sat": 9734,
      "öğrenme": 9735,
      "danı": 9736,
      "oranları": 9737,
      "dönemlerde": 9738,
      "larınıza": 9739,
      "lanmaktadır": 9740,
      "çevres": 9741,
      "aktivit": 9742,
      "cebook": 9743,
      "edici": 9744,
      "eklem": 9745,
      "Vatandaş": 9746,
      "Samsung": 9747,
      "mekaniz": 9748,
      "dili": 9749,
      "250": 9750,
      "ihlal": 9751,
      "çağr": 9752,
      "alkol": 9753,
      "kül": 9754,
      "Düzen": 9755,
      "açtı": 9756,
      "alel": 9757,
      "gördüğü": 9758,
      "Şanlıurfa": 9759,
      "beklem": 9760,
      "anlaşma": 9761,
      "kaza": 9762,
      "und": 9763,
      "zamanında": 9764,
      "Yusu": 9765,
      "yüzlerce": 9766,
      "arız": 9767,
      "evden": 9768,
      "ettikleri": 9769,
      "dolan": 9770,
      "gidip": 9771,
      "devreye": 9772,
      "eğe": 9773,
      "Kuş": 9774,
      "Lisesi": 9775,
      "tikten": 9776,
      "Baz": 9777,
      "havuz": 9778,
      "Temel": 9779,
      "aker": 9780,
      "haberine": 9781,
      "ettim": 9782,
      "aktör": 9783,
      "land": 9784,
      "gösterdiği": 9785,
      "yaj": 9786,
      "eyim": 9787,
      "noktas": 9788,
      "sigort": 9789,
      "Projesi": 9790,
      "milletvekil": 9791,
      "Kuvvet": 9792,
      "gelişen": 9793,
      "Yusuf": 9794,
      "çekme": 9795,
      "denk": 9796,
      "hatt": 9797,
      "Soy": 9798,
      "olmadı": 9799,
      "başladığı": 9800,
      "veç": 9801,
      "katılımı": 9802,
      "bitki": 9803,
      "amuk": 9804,
      "Şek": 9805,
      "Micro": 9806,
      "GE": 9807,
      "rag": 9808,
      "etmeyi": 9809,
      "Sekret": 9810,
      "Türkiy": 9811,
      "yıcı": 9812,
      "harcam": 9813,
      "idari": 9814,
      "kullanılmıştır": 9815,
      "lanabilir": 9816,
      "TT": 9817,
      "Pr": 9818,
      "sağlamaktadır": 9819,
      "akademik": 9820,
      "Dik": 9821,
      "uydu": 9822,
      "moda": 9823,
      "sigara": 9824,
      "mücade": 9825,
      "simum": 9826,
      "ceğim": 9827,
      "başlamış": 9828,
      "görülür": 9829,
      "haftada": 9830,
      "toplantısında": 9831,
      "Üstelik": 9832,
      "ketbol": 9833,
      "tuğu": 9834,
      "düzenlediği": 9835,
      "medyada": 9836,
      "mesle": 9837,
      "Federasyonu": 9838,
      "Twitter": 9839,
      "alımı": 9840,
      "cilerin": 9841,
      "içerir": 9842,
      "anlaya": 9843,
      "sürüyor": 9844,
      "Farklı": 9845,
      "tikçe": 9846,
      "sürdürülebilir": 9847,
      "sağlanması": 9848,
      "lılar": 9849,
      "olmasa": 9850,
      "genişlet": 9851,
      "kesint": 9852,
      "UM": 9853,
      "aksine": 9854,
      "eyh": 9855,
      "illa": 9856,
      "hatırlat": 9857,
      "gözük": 9858,
      "ulaştı": 9859,
      "eğilim": 9860,
      "nüfus": 9861,
      "sundaki": 9862,
      "açan": 9863,
      "cik": 9864,
      "çıkmış": 9865,
      "kaçak": 9866,
      "Por": 9867,
      "SA": 9868,
      "Uygulama": 9869,
      "teknolojik": 9870,
      "verilmiştir": 9871,
      "deng": 9872,
      "Adalet": 9873,
      "eğlenceli": 9874,
      "ilde": 9875,
      "icra": 9876,
      "Anal": 9877,
      "Bül": 9878,
      "Mez": 9879,
      "harit": 9880,
      "siyasal": 9881,
      "işleme": 9882,
      "kritik": 9883,
      "Danış": 9884,
      "eyerek": 9885,
      "tüccar": 9886,
      "Özgür": 9887,
      "yaşıyor": 9888,
      "sinema": 9889,
      "Bilgi": 9890,
      "raz": 9891,
      "1000": 9892,
      "Adı": 9893,
      "Hu": 9894,
      "menize": 9895,
      "Kaf": 9896,
      "utin": 9897,
      "hain": 9898,
      "kumaş": 9899,
      "Hindistan": 9900,
      "Ner": 9901,
      "çöp": 9902,
      "broker": 9903,
      "Hız": 9904,
      "değişen": 9905,
      "Lim": 9906,
      "gözden": 9907,
      "Erkek": 9908,
      "Saç": 9909,
      "olmanın": 9910,
      "yapıp": 9911,
      "aykırı": 9912,
      "Ala": 9913,
      "mezar": 9914,
      "hu": 9915,
      "getirdiği": 9916,
      "deplasman": 9917,
      "kilometre": 9918,
      "lus": 9919,
      "57": 9920,
      "IC": 9921,
      "08": 9922,
      "tıklarını": 9923,
      "başarısız": 9924,
      "haberi": 9925,
      "imzalan": 9926,
      "ii": 9927,
      "2007": 9928,
      "Muham": 9929,
      "ters": 9930,
      "yaşamını": 9931,
      "zorlu": 9932,
      "bizlere": 9933,
      "Teknoloji": 9934,
      "ack": 9935,
      "zirve": 9936,
      "Manisa": 9937,
      "sunucu": 9938,
      "pahalı": 9939,
      "otos": 9940,
      "Savunma": 9941,
      "olmaktan": 9942,
      "etkisini": 9943,
      "şehrin": 9944,
      "lılığı": 9945,
      "parmak": 9946,
      "Ker": 9947,
      "yapın": 9948,
      "Ed": 9949,
      "aat": 9950,
      "garanti": 9951,
      "zamanlı": 9952,
      "IP": 9953,
      "cad": 9954,
      "Min": 9955,
      "dolara": 9956,
      "vurguladı": 9957,
      "İçişleri": 9958,
      "geçiyor": 9959,
      "fek": 9960,
      "lamadan": 9961,
      "Muğ": 9962,
      "Dön": 9963,
      "kişiyi": 9964,
      "600": 9965,
      "Saat": 9966,
      "gayet": 9967,
      "isteyenler": 9968,
      "alınacak": 9969,
      "lıdır": 9970,
      "sevg": 9971,
      "İlç": 9972,
      "batı": 9973,
      "ısal": 9974,
      "yaptığını": 9975,
      "sessiz": 9976,
      "Caddesi": 9977,
      "Paris": 9978,
      "restoran": 9979,
      "Güç": 9980,
      "YA": 9981,
      "hizmetler": 9982,
      "Rapor": 9983,
      "link": 9984,
      "olunca": 9985,
      "Com": 9986,
      "tl": 9987,
      "ağz": 9988,
      "tablet": 9989,
      "ekipman": 9990,
      "caz": 9991,
      "aşağıda": 9992,
      "mp": 9993,
      "mavi": 9994,
      "yatırımcılar": 9995,
      "alakalı": 9996,
      "istis": 9997,
      "aldık": 9998,
      "anlayışı": 9999,
      "piyasada": 10000,
      "ileşim": 10001,
      "fiyatlar": 10002,
      "salgın": 10003,
      "likte": 10004,
      "Eki": 10005,
      "pren": 10006,
      "ettiler": 10007,
      "kaldığı": 10008,
      "emize": 10009,
      "üğ": 10010,
      "yöntemleri": 10011,
      "kahvaltı": 10012,
      "95": 10013,
      "çor": 10014,
      "yiz": 10015,
      "yoktu": 10016,
      "açıklandı": 10017,
      "Uğur": 10018,
      "canlandır": 10019,
      "imenkul": 10020,
      "yürütülen": 10021,
      "Saray": 10022,
      "kafa": 10023,
      "kızı": 10024,
      "örneğin": 10025,
      "ördün": 10026,
      "vücud": 10027,
      "yılına": 10028,
      "beraberinde": 10029,
      "85": 10030,
      "dere": 10031,
      "Mobil": 10032,
      "saatleri": 10033,
      "bina": 10034,
      "sürpriz": 10035,
      "sokağ": 10036,
      "anma": 10037,
      "post": 10038,
      "uyuşturucu": 10039,
      "ysa": 10040,
      "dönüm": 10041,
      "İşleri": 10042,
      "Çak": 10043,
      "yaralandı": 10044,
      "Telef": 10045,
      "sanki": 10046,
      "Arkadaş": 10047,
      "Terör": 10048,
      "geliştirme": 10049,
      "yapılandır": 10050,
      "buluştur": 10051,
      "arkadaşlar": 10052,
      "oluşur": 10053,
      "Resmi": 10054,
      "Mis": 10055,
      "vurgulayan": 10056,
      "tuş": 10057,
      "yargılan": 10058,
      "Sun": 10059,
      "Mesel": 10060,
      "mate": 10061,
      "altyapı": 10062,
      "lamada": 10063,
      "kullanılmaktadır": 10064,
      "kişilere": 10065,
      "değerleri": 10066,
      "ülkelerde": 10067,
      "kims": 10068,
      "pik": 10069,
      "dükkan": 10070,
      "Karar": 10071,
      "Dolar": 10072,
      "sürüm": 10073,
      "Herkes": 10074,
      "Değer": 10075,
      "diven": 10076,
      "unuza": 10077,
      "cüz": 10078,
      "onur": 10079,
      "ihra": 10080,
      "graf": 10081,
      "ülük": 10082,
      "kaydeden": 10083,
      "çekir": 10084,
      "York": 10085,
      "manevi": 10086,
      "aydınlat": 10087,
      "sahne": 10088,
      "Oysa": 10089,
      "üntü": 10090,
      "rahatsızlık": 10091,
      "kemik": 10092,
      "irade": 10093,
      "kurban": 10094,
      "enfeksiyon": 10095,
      "ash": 10096,
      "ükleer": 10097,
      "odaklı": 10098,
      "Roma": 10099,
      "Ağır": 10100,
      "eyebilirsiniz": 10101,
      "Nec": 10102,
      "ment": 10103,
      "panel": 10104,
      "olduğunun": 10105,
      "faiye": 10106,
      "arıyla": 10107,
      "Enstit": 10108,
      "muhafaz": 10109,
      "köp": 10110,
      "ates": 10111,
      "açıklaması": 10112,
      "bulunduğunu": 10113,
      "altındaki": 10114,
      "sanık": 10115,
      "esnek": 10116,
      "ondan": 10117,
      "konular": 10118,
      "Hotel": 10119,
      "tıktan": 10120,
      "getiriyor": 10121,
      "plastik": 10122,
      "laşması": 10123,
      "kısmında": 10124,
      "xy": 10125,
      "ülür": 10126,
      "tetik": 10127,
      "Başvur": 10128,
      "liğiyle": 10129,
      "',": 10130,
      "tığınız": 10131,
      "ane": 10132,
      "düşünür": 10133,
      "tanık": 10134,
      "kırık": 10135,
      "41": 10136,
      "duygusal": 10137,
      "almıştır": 10138,
      "Nev": 10139,
      "sıcaklık": 10140,
      "Takım": 10141,
      "eşliğinde": 10142,
      "enizi": 10143,
      "değildi": 10144,
      "derg": 10145,
      "muay": 10146,
      "tutan": 10147,
      "gerçekleştirildi": 10148,
      "Hazır": 10149,
      "Kral": 10150,
      "imizle": 10151,
      "Mel": 10152,
      "inti": 10153,
      "çik": 10154,
      "zamanlar": 10155,
      "İlet": 10156,
      "milletvekili": 10157,
      "aşamasında": 10158,
      "Yaşam": 10159,
      "Metin": 10160,
      "Londra": 10161,
      "mim": 10162,
      "Hangi": 10163,
      "Hayvan": 10164,
      "lenin": 10165,
      "tarafında": 10166,
      "çaba": 10167,
      "abileceği": 10168,
      "direnç": 10169,
      "Proje": 10170,
      "belirlemek": 10171,
      "ilme": 10172,
      "içeri": 10173,
      "ailen": 10174,
      "demokrasi": 10175,
      "gök": 10176,
      "suzluk": 10177,
      "Doktor": 10178,
      "karmaşık": 10179,
      "numaralı": 10180,
      "ailesi": 10181,
      "çapında": 10182,
      "Konseyi": 10183,
      "kıv": 10184,
      "seven": 10185,
      "Muğla": 10186,
      "sakat": 10187,
      "evlilik": 10188,
      "Gıda": 10189,
      "fuar": 10190,
      "siteleri": 10191,
      "depo": 10192,
      "araçlar": 10193,
      "bekleyen": 10194,
      "egemen": 10195,
      "Zey": 10196,
      "Pak": 10197,
      "şen": 10198,
      "konuyu": 10199,
      "rüzgar": 10200,
      "tehlikeli": 10201,
      "etkileyen": 10202,
      "çalışıyoruz": 10203,
      "Komisyonu": 10204,
      "olurken": 10205,
      "Art": 10206,
      "diğine": 10207,
      "İspanya": 10208,
      "Yür": 10209,
      "takımın": 10210,
      "bozul": 10211,
      "Orhan": 10212,
      "yansıt": 10213,
      "taç": 10214,
      "İnşa": 10215,
      "mülk": 10216,
      "leniyor": 10217,
      "vid": 10218,
      "lamaları": 10219,
      "eşlik": 10220,
      "mara": 10221,
      "irler": 10222,
      "protein": 10223,
      "uncu": 10224,
      "şartları": 10225,
      "yıldan": 10226,
      "anlamı": 10227,
      "Doç": 10228,
      "con": 10229,
      "sistemin": 10230,
      "sahipliği": 10231,
      "planı": 10232,
      "aldığını": 10233,
      "toplan": 10234,
      "ATO": 10235,
      "satan": 10236,
      "prim": 10237,
      "seviyesi": 10238,
      "yerleri": 10239,
      "yalım": 10240,
      "haklı": 10241,
      "kimsenin": 10242,
      "ğiyle": 10243,
      "doğa": 10244,
      "göğ": 10245,
      "ikram": 10246,
      "geliştirmek": 10247,
      "ılımı": 10248,
      "melik": 10249,
      "utma": 10250,
      "görüşme": 10251,
      "denin": 10252,
      "çalışmaların": 10253,
      "Valisi": 10254,
      "Mühendis": 10255,
      "hitap": 10256,
[...]
